<unk>	0
<s>	0
</s>	0
[PAD]	0
[CLS]	0
[SEP]	0
[MASK]	0
.	-3.03965
,	-3.535
'	-3.88191
▁ve	-4.11145
▁bir	-4.60159
▁	-4.783
="	-4.83537
doc	-4.96941
"	-5.13839
▁"	-5.18
da	-5.36129
▁(	-5.37712
de	-5.45753
▁olarak	-5.47898
a	-5.49036
▁ile	-5.52551
/	-5.53257
>	-5.55985
tr	-5.57887
)	-5.59111
e	-5.60436
▁<	-5.63032
?	-5.63743
org	-5.64791
▁id	-5.65462
://	-5.6578
https	-5.66197
wiki	-5.66284
wikipedia	-5.66323
▁title	-5.66408
▁url	-5.66409
curid	-5.66421
▁</	-5.66492
in	-5.67338
i	-5.68539
n	-5.70282
nin	-5.70907
">	-5.75861
-	-5.77053
nın	-5.78428
▁için	-5.84951
▁bu	-5.85121
lar	-5.87711
’	-5.89419
▁olan	-5.92322
▁da	-5.93198
ler	-5.94366
▁de	-6.0377
ın	-6.043
▁yılında	-6.06715
▁Bu	-6.12731
▁tarafından	-6.18095
na	-6.19812
ya	-6.22048
te	-6.23147
▁sonra	-6.2409
s	-6.24918
ne	-6.255
:	-6.34897
▁ilk	-6.45094
ları	-6.47918
▁en	-6.49452
k	-6.50884
leri	-6.51829
d	-6.51888
ı	-6.5392
▁daha	-6.54474
nde	-6.55984
un	-6.56405
dir	-6.56636
nda	-6.56688
ni	-6.56853
▁yer	-6.57143
▁ise	-6.57204
den	-6.57874
dan	-6.58312
li	-6.62993
ye	-6.65013
;	-6.68513
ta	-6.69628
u	-6.7175
▁gibi	-6.72687
▁çok	-6.73851
la	-6.78366
▁arasında	-6.82854
dır	-6.82994
si	-6.83575
le	-6.84776
lı	-6.85372
t	-6.86518
▁kadar	-6.8821
▁büyük	-6.91544
),	-6.92207
▁iki	-6.92428
▁oldu	-7.02067
m	-7.03235
▁göre	-7.0354
o	-7.05021
ların	-7.06722
nı	-7.07346
▁veya	-7.09909
▁Türkiye	-7.11568
▁olduğu	-7.11788
▁km	-7.12624
lerin	-7.13141
r	-7.1414
▁tarihinde	-7.14205
z	-7.16372
▁bağlı	-7.16757
nun	-7.17661
y	-7.19288
daki	-7.1992
▁A	-7.2266
l	-7.23169
▁alan	-7.23229
▁-	-7.24345
▁ya	-7.25708
▁bulunan	-7.25873
lik	-7.27192
▁birlikte	-7.27343
2	-7.29193
sı	-7.29818
▁Türk	-7.30075
ki	-7.32344
▁diğer	-7.33132
di	-7.33173
yi	-7.34177
▁1	-7.34591
en	-7.34895
nden	-7.36276
yı	-7.37689
an	-7.38403
ndan	-7.41313
▁yeni	-7.42422
▁karşı	-7.4253
▁!	-7.45224
▁adlı	-7.4556
▁aynı	-7.4586
▁yıl	-7.46147
er	-7.46908
▁3	-7.47971
yla	-7.48537
center	-7.50587
▁align	-7.50635
▁|	-7.51116
yle	-7.51184
▁her	-7.51546
▁ilçesine	-7.51642
▁İstanbul	-7.51777
▁2	-7.51954
▁etti	-7.53799
▁önemli	-7.54384
1	-7.56061
▁Dünya	-7.56418
▁başladı	-7.57564
▁aldı	-7.58008
▁son	-7.5809
▁Bir	-7.59657
▁adı	-7.60004
3	-7.6035
▁Avrupa	-7.6042
ca	-7.60775
p	-7.61137
deki	-7.61288
▁eski	-7.62797
▁I	-7.63144
▁yapılan	-7.63388
▁olmuştur	-7.64556
larını	-7.65299
▁önce	-7.65616
▁vardır	-7.65895
ti	-7.66117
5	-7.66926
ma	-7.66927
▁S	-7.67224
7	-7.67499
ten	-7.67715
4	-7.6774
▁15	-7.68161
▁içinde	-7.68563
▁4	-7.68632
▁Üniversitesi	-7.69845
tan	-7.69921
lu	-7.69978
lara	-7.6999
▁O	-7.69999
▁üzerine	-7.71604
sa	-7.72236
▁kez	-7.72685
8	-7.72811
▁5	-7.74698
lık	-7.74797
lere	-7.74839
9	-7.75059
▁Mart	-7.75479
▁ancak	-7.7619
▁birçok	-7.76418
▁şekilde	-7.7672
▁üzere	-7.77601
▁o	-7.77799
▁olduğunu	-7.77831
h	-7.78729
▁10	-7.78962
▁sahip	-7.79056
▁gelen	-7.79229
f	-7.79344
▁ikinci	-7.80172
6	-7.80198
lerini	-7.8033
pan	-7.8113
▁Ayrıca	-7.81162
se	-7.81516
▁üç	-7.82361
larda	-7.82527
",	-7.82575
me	-7.82803
▁kabul	-7.82861
ken	-7.82908
▁kendi	-7.83455
▁Mayıs	-7.84072
0	-7.84346
▁devam	-7.84582
A	-7.85231
▁yaptı	-7.85783
▁iyi	-7.87621
▁Ocak	-7.87845
▁olup	-7.8805
▁zaman	-7.88175
▁tek	-7.88224
▁görev	-7.88443
▁tüm	-7.88911
▁fazla	-7.89144
ce	-7.89236
al	-7.89386
lerde	-7.89783
▁Kasım	-7.89879
▁eden	-7.89885
▁16	-7.90449
man	-7.90511
▁6	-7.90898
▁12	-7.91201
S	-7.91264
▁üzerinde	-7.91842
▁17	-7.91927
▁yüksek	-7.92338
▁Haziran	-7.92454
▁farklı	-7.92523
▁bazı	-7.92562
▁Eylül	-7.93905
larının	-7.94473
▁Osmanlı	-7.94921
▁bulunmaktadır	-7.95049
▁Ekim	-7.9524
▁Nisan	-7.95267
▁ABD	-7.95504
▁Temmuz	-7.95652
▁“	-7.96199
▁Ağustos	-7.96512
▁E	-7.97816
g	-7.97905
”	-7.98088
▁Amerika	-7.9836
▁Daha	-7.9883
▁Ancak	-7.98891
lerinin	-7.99156
▁olmak	-7.99398
▁ardından	-7.99898
tir	-8.00225
▁ilinin	-8.00243
▁geri	-8.01144
▁Aralık	-8.01551
▁7	-8.01693
▁hem	-8.01997
▁En	-8.02668
▁sırasında	-8.03552
▁nüfusu	-8.03718
▁çeşitli	-8.03933
c	-8.03993
▁ortaya	-8.0417
▁cols	-8.04368
▁küçük	-8.04749
▁biri	-8.05332
▁İlk	-8.06177
")	-8.06219
dur	-8.06918
dı	-8.07394
▁Şubat	-8.07731
▁yılları	-8.07917
▁Savaşı	-8.07939
▁14	-8.08187
▁genel	-8.08357
▁8	-8.08731
▁süre	-8.08817
▁of	-8.09118
on	-8.09458
▁K	-8.09547
▁yılı	-8.10558
ü	-8.10604
▁Birleşik	-8.10692
▁boyunca	-8.1089
ci	-8.10957
ra	-8.11291
▁sadece	-8.11677
▁T	-8.12209
▁M	-8.12519
ün	-8.1264
▁zamanda	-8.13022
▁20	-8.13271
ir	-8.13827
▁13	-8.14511
tır	-8.14698
ş	-8.15153
us	-8.15331
▁kişi	-8.15334
b	-8.15698
lardan	-8.15958
larına	-8.15994
▁II	-8.16145
▁B	-8.16245
lerine	-8.16322
el	-8.1691
▁The	-8.1702
▁doğru	-8.17813
▁nedeniyle	-8.17978
B	-8.18475
lerden	-8.18557
ka	-8.18607
C	-8.1863
▁su	-8.18755
▁C	-8.19962
ini	-8.20031
▁11	-8.20413
ar	-8.20874
lerinden	-8.20947
▁uzun	-8.21186
▁yeniden	-8.21553
▁uzaklıktadır	-8.21608
▁yaptığı	-8.2237
▁2010	-8.22465
ine	-8.22723
▁Almanya	-8.22928
▁yaklaşık	-8.23351
▁gün	-8.242
▁bulunur	-8.24423
▁("	-8.24708
▁yerine	-8.24842
▁Ankara	-8.24955
▁tekrar	-8.25526
▁9	-8.25586
su	-8.25748
▁rağmen	-8.25813
▁müzik	-8.26075
ri	-8.2648
▁Yeni	-8.26545
▁Fransa	-8.26552
K	-8.26683
larında	-8.26709
▁almıştır	-8.26837
sel	-8.27728
▁G	-8.27854
tı	-8.28137
▁edilen	-8.2832
▁başka	-8.28439
▁edilmiştir	-8.28502
▁kısa	-8.28507
▁18	-8.28525
▁Genel	-8.28765
▁özel	-8.28897
▁Alman	-8.28917
▁altında	-8.29292
at	-8.29311
▁merkezi	-8.29351
re	-8.29467
▁oyuncu	-8.29515
▁millî	-8.2952
▁edildi	-8.296
larından	-8.29627
▁the	-8.29848
▁az	-8.29999
)">	-8.31109
▁U	-8.31588
▁Kupası	-8.31778
▁ana	-8.31785
E	-8.32248
▁eder	-8.32437
▁ilgili	-8.32949
▁yakın	-8.33556
x	-8.33607
▁elde	-8.33907
▁D	-8.34067
▁P	-8.3439
▁takım	-8.34495
▁30	-8.35346
▁kazandı	-8.35388
▁film	-8.35692
nu	-8.35719
▁savaş	-8.35971
▁devlet	-8.3612
▁dört	-8.36645
▁İngiliz	-8.3712
es	-8.37368
O	-8.37909
T	-8.38223
▁sıra	-8.38425
▁Kuzey	-8.38953
▁Amerikan	-8.39236
▁Güney	-8.39266
D	-8.39524
▁tarihi	-8.39805
ik	-8.39917
to	-8.40099
il	-8.40128
larla	-8.40178
is	-8.40213
▁sonunda	-8.40352
▁Paşa	-8.40357
▁olması	-8.40424
▁Roma	-8.40449
▁şu	-8.40753
▁ayrıca	-8.40806
liği	-8.41234
mi	-8.41587
▁Her	-8.42268
▁adıyla	-8.42296
▁Cumhuriyeti	-8.42353
The	-8.42547
▁sezonunda	-8.42778
▁ait	-8.43037
▁Birliği	-8.43183
▁yapan	-8.43301
▁Rusya	-8.43401
▁takımı	-8.43489
▁on	-8.43866
▁sırada	-8.43918
▁etmiştir	-8.44183
lerle	-8.44338
▁çıkan	-8.44581
▁kullanılan	-8.44631
▁ele	-8.4486
▁dahil	-8.44985
▁bin	-8.45072
▁onun	-8.45226
lerinde	-8.45388
▁25	-8.45912
G	-8.46123
▁yapmıştır	-8.46131
▁sahiptir	-8.46203
▁yol	-8.46314
▁bilinen	-8.46537
▁Büyük	-8.46902
▁oluşan	-8.47102
v	-8.47211
▁ne	-8.47288
oğlu	-8.47299
▁ama	-8.47583
ydi	-8.48309
▁grup	-8.48317
▁Doğu	-8.4865
ç	-8.48763
(	-8.48764
▁arasındaki	-8.49487
▁2.	-8.4965
▁F	-8.49815
yan	-8.49905
▁futbol	-8.5022
▁çıktı	-8.50535
▁Şarkı	-8.50662
▁2009	-8.50697
▁Al	-8.51105
lü	-8.51191
ton	-8.5126
ba	-8.51264
▁milyon	-8.51674
ter	-8.51714
▁R	-8.51927
▁genellikle	-8.52095
du	-8.52168
▁dolayı	-8.52396
▁özellikle	-8.52423
▁almaktadır	-8.52451
ge	-8.52703
F	-8.53131
▁Aynı	-8.53376
os	-8.534
no	-8.53454
▁sezon	-8.53483
▁Fransız	-8.53613
▁nüfus	-8.5369
▁New	-8.53835
▁itibaren	-8.53876
ga	-8.5392
▁sonucu	-8.54097
▁La	-8.54144
▁eğitim	-8.54152
▁26	-8.54316
▁açık	-8.54405
▁m	-8.54626
▁Ali	-8.54755
▁onu	-8.54947
ır	-8.54995
▁üst	-8.55183
▁hakkında	-8.55234
▁H	-8.5526
lan	-8.55289
▁karar	-8.55311
▁birkaç	-8.55363
▁ev	-8.55389
▁şarkı	-8.55515
▁El	-8.55693
▁gelir	-8.55757
ktan	-8.55772
P	-8.56123
▁gol	-8.563
▁döneminde	-8.56305
cı	-8.56307
▁verilen	-8.56894
▁Çin	-8.57282
son	-8.5752
ydı	-8.57584
▁toplam	-8.57594
▁iş	-8.57657
▁Kara	-8.57734
va	-8.58064
▁olur	-8.58239
▁Partisi	-8.58474
▁24	-8.58496
▁Film	-8.58502
I	-8.58645
=21	-8.59002
▁Anadolu	-8.59036
▁il	-8.5906
M	-8.59126
▁Ligi	-8.59298
▁İngiltere	-8.59548
▁verdi	-8.59605
im	-8.59614
▁De	-8.59643
î	-8.59703
▁Devletleri	-8.59794
▁2011	-8.59964
▁22	-8.59984
▁neden	-8.6001
▁tam	-8.60034
▁dışında	-8.60134
▁Amerikalı	-8.60239
▁ifade	-8.60282
▁adını	-8.60308
▁İtalya	-8.6045
▁alır	-8.60464
▁N	-8.60498
▁Lig	-8.60634
▁ki	-8.60798
▁beri	-8.60865
ve	-8.60866
▁Ar	-8.60944
▁21	-8.6111
▁el	-8.61275
▁NGC	-8.61339
mış	-8.61451
sal	-8.61463
▁ay	-8.61506
ro	-8.61856
▁şehir	-8.62056
▁Bey	-8.62113
ını	-8.62196
▁19	-8.62199
lama	-8.6231
▁beraber	-8.6232
▁insan	-8.62353
▁Rus	-8.62488
um	-8.62575
▁Su	-8.6274
▁geldi	-8.63023
▁alt	-8.63045
▁23	-8.6322
▁inşa	-8.63416
▁aldığı	-8.63451
▁fakat	-8.63516
j	-8.63662
lığı	-8.63729
▁oğlu	-8.6378
ur	-8.64019
st	-8.64079
▁yanı	-8.64173
▁ö	-8.64185
▁2008	-8.64201
▁rol	-8.64262
▁1.	-8.64406
▁itibarıyla	-8.64463
▁kadın	-8.64591
ke	-8.64687
ing	-8.64865
▁albümü	-8.64891
▁kalan	-8.65011
yu	-8.65144
▁2006	-8.65553
ck	-8.6559
▁bütün	-8.65846
▁sayısı	-8.66127
▁dünya	-8.66161
▁dönemde	-8.66253
▁isimli	-8.66306
▁a	-8.66383
▁yıllarında	-8.66479
ha	-8.66531
ia	-8.66849
et	-8.66885
▁İmparatorluğu	-8.66995
▁geniş	-8.67024
▁yapımı	-8.6711
ndeki	-8.6737
▁transfer	-8.67611
it	-8.67639
▁olmayan	-8.6785
▁merkezine	-8.67929
▁V	-8.68021
▁Orta	-8.68189
spor	-8.68628
▁yine	-8.68733
miştir	-8.68971
▁var	-8.69049
▁bulunduğu	-8.69075
▁in	-8.69202
▁temsil	-8.69263
="4"	-8.69464
▁Bunun	-8.6975
ndaki	-8.699
nowiki	-8.69905
▁mücadele	-8.70115
▁2014	-8.70202
mıştır	-8.70209
▁Batı	-8.70454
▁futbolcudur	-8.70658
▁iline	-8.70984
sını	-8.7109
▁oynadı	-8.71205
ran	-8.71367
▁2012	-8.71426
▁üçüncü	-8.71594
▁hemen	-8.71636
▁2015	-8.71734
be	-8.72153
▁pek	-8.72343
▁beş	-8.72359
▁köydür	-8.72434
▁iç	-8.72466
▁27	-8.72784
▁Şampiyonası	-8.72936
▁2007	-8.73166
▁Me	-8.73247
▁geçen	-8.73568
▁28	-8.73722
▁askeri	-8.73731
miş	-8.73962
do	-8.73967
▁içerisinde	-8.74353
▁temel	-8.74655
="14	-8.74663
▁–	-8.74709
▁""	-8.74782
▁kaldı	-8.74816
▁edilir	-8.75061
"),	-8.75329
H	-8.75384
ko	-8.75505
▁etmek	-8.75525
▁kurulan	-8.75803
▁teknik	-8.75847
=20	-8.76071
ov	-8.762
▁forma	-8.76208
sini	-8.76236
arak	-8.76449
U	-8.76699
▁Re	-8.76919
▁yaşında	-8.77177
="17	-8.77257
han	-8.7748
▁kullanılır	-8.77664
▁Fakat	-8.77695
▁hava	-8.77707
▁dizi	-8.77911
=17	-8.77935
len	-8.78293
▁ismi	-8.78328
▁Han	-8.78424
ak	-8.78618
tu	-8.7872
luk	-8.78768
▁maçta	-8.78816
▁yıllarda	-8.78943
bi	-8.7905
▁2013	-8.79157
V	-8.7932
▁dönem	-8.79513
▁Parti	-8.7962
der	-8.79651
▁orta	-8.80007
▁ayında	-8.80036
▁2016	-8.80099
▁katıldı	-8.80195
ğ	-8.80245
▁oranı	-8.80334
▁3.	-8.80361
▁Ödülü	-8.80515
▁burada	-8.80654
▁Ak	-8.81279
▁çocuk	-8.8133
sine	-8.81376
▁yaşayan	-8.8161
▁deniz	-8.81622
▁yarı	-8.81687
▁ek	-8.81726
▁metre	-8.81865
▁John	-8.81974
▁sahibi	-8.82264
▁televizyon	-8.82635
▁Sovyet	-8.82644
="15	-8.83163
▁filmi	-8.8323
▁idi	-8.83325
▁tespit	-8.83377
▁mahalledir	-8.83493
▁2005	-8.83666
-19	-8.84044
▁ünlü	-8.84082
▁Afrika	-8.84087
br	-8.84141
▁altı	-8.84176
▁yanında	-8.84405
▁sonraki	-8.84497
▁üyesi	-8.8467
▁grubu	-8.84723
20	-8.84793
▁çalıştı	-8.84828
▁resmi	-8.84957
▁Sultan	-8.84972
▁ona	-8.85007
ması	-8.85044
▁ülke	-8.85124
▁söz	-8.8528
▁31	-8.85349
▁biridir	-8.85676
ver	-8.86055
▁uluslararası	-8.86145
L	-8.86297
▁29	-8.86331
▁ettiği	-8.86733
▁Fakültesi	-8.86748
▁başarılı	-8.86845
▁genç	-8.86897
▁Paris	-8.86994
köy	-8.87018
▁düzenlenen	-8.87066
ed	-8.87082
▁hareket	-8.8721
▁sezonu	-8.87466
mak	-8.8757
nün	-8.87625
▁an	-8.87685
ch	-8.87815
▁yılından	-8.87835
dür	-8.88166
▁başlayan	-8.8817
R	-8.88305
▁girdi	-8.88348
▁L	-8.88823
▁günü	-8.88877
▁Devlet	-8.8888
▁San	-8.88892
▁bilgi	-8.89001
▁(19	-8.89103
mo	-8.89202
▁baş	-8.89244
="3	-8.89326
za	-8.89344
vi	-8.89381
as	-8.89397
▁yerel	-8.8974
▁hizmet	-8.89791
▁sistemi	-8.89797
▁yazar	-8.89827
▁Uluslararası	-8.89837
gi	-8.8986
▁formula	-8.90281
▁İran	-8.90438
▁yayın	-8.90449
or	-8.90531
▁2000	-8.90687
▁oldukça	-8.90821
▁başlamıştır	-8.90847
▁para	-8.9096
▁çoğu	-8.91034
▁sayıda	-8.9128
çi	-8.91335
▁çıkar	-8.91465
▁Sa	-8.91468
lo	-8.91576
men	-8.91586
▁yapı	-8.91601
▁Ulusal	-8.91626
▁ön	-8.91757
▁York	-8.91818
=14	-8.91887
gen	-8.92041
▁Er	-8.92074
▁ayrı	-8.92092
go	-8.92461
▁Son	-8.92581
teki	-8.92738
▁erkek	-8.92761
▁İyi	-8.92925
▁değil	-8.92928
▁albüm	-8.93011
▁Le	-8.93395
▁gerçek	-8.934
▁yıllık	-8.9341
kan	-8.93417
▁cm	-8.93496
inde	-8.93642
▁2004	-8.93865
th	-8.93888
▁and	-8.94099
▁tür	-8.94099
tur	-8.9423
▁şehrin	-8.9438
▁Bakanlığı	-8.9447
▁halk	-8.94697
w	-8.94874
ol	-8.95074
▁haline	-8.95114
▁Ne	-8.95163
é	-8.95319
▁başına	-8.95421
kten	-8.9554
▁doğdu	-8.95572
▁olabilir	-8.95888
erek	-8.95918
ist	-8.96029
▁oyun	-8.96234
▁başkanı	-8.96238
N	-8.96359
▁hafta	-8.96372
inin	-8.96373
▁saat	-8.96539
▁herhangi	-8.96742
▁yılına	-8.96784
▁köy	-8.96888
▁iddia	-8.96972
▁ilan	-8.97059
▁sonucunda	-8.9711
▁100	-8.97262
▁değildir	-8.97485
▁yardım	-8.97515
▁güç	-8.97555
▁Ha	-8.97728
▁başında	-8.98114
▁yönünde	-8.98157
▁yaygın	-8.98233
▁listesi	-8.98373
▁şeklinde	-8.98649
16	-8.98685
▁geçti	-8.98771
▁vardı	-8.98811
W	-8.98872
çe	-8.98932
sinde	-8.99091
▁İspanya	-8.99133
▁adet	-8.99256
▁X	-8.99484
ley	-8.99717
▁amacıyla	-8.99788
▁kız	-8.99991
▁sayı	-9.0007
▁sinema	-9.00088
ry	-9.00136
▁Mısır	-9.0015
▁d	-9.00223
▁Ma	-9.0033
taki	-9.00331
▁Oy	-9.00356
siz	-9.00491
▁İ	-9.007
ö	-9.00701
▁tip	-9.01073
▁Da	-9.01099
leriyle	-9.01309
▁J	-9.01414
▁anlamına	-9.01863
▁konusunda	-9.02248
▁hiçbir	-9.02259
▁uygun	-9.02308
▁Ay	-9.02401
cu	-9.02437
ul	-9.02582
▁Se	-9.02603
co	-9.02652
▁benzer	-9.02863
▁yüzyılda	-9.02869
▁ortak	-9.03009
10	-9.0311
nü	-9.03117
▁sık	-9.03235
▁ülkenin	-9.03248
▁bile	-9.03276
▁güçlü	-9.03337
▁mezun	-9.03346
▁ses	-9.03523
▁bilim	-9.03827
ze	-9.04067
▁bulundu	-9.04216
▁2017	-9.0437
tik	-9.04463
▁bunun	-9.04526
▁Na	-9.04533
▁etmektedir	-9.04543
sen	-9.04581
▁maç	-9.04645
▁veren	-9.04656
▁aday	-9.04698
▁yerleşim	-9.04801
maktadır	-9.0486
▁kurulmuştur	-9.04876
▁video	-9.0527
▁yönetim	-9.05434
▁din	-9.0551
▁sonrasında	-9.05519
ber	-9.05616
▁başlar	-9.05655
bu	-9.05699
ek	-9.06017
▁İzmir	-9.06235
▁yana	-9.06272
▁Bar	-9.06322
▁önceki	-9.06369
▁ilçe	-9.06374
▁İngilizce	-9.06411
▁Nehri	-9.06546
▁Bo	-9.06588
▁meydana	-9.066
▁Ko	-9.06613
sız	-9.06724
lerdir	-9.06817
13	-9.06858
▁2002	-9.07043
▁kısmı	-9.07171
▁konu	-9.07297
mektedir	-9.07322
▁Mo	-9.07403
▁destek	-9.07488
00	-9.07516
lardır	-9.07991
▁siyasi	-9.08188
▁eyaletinde	-9.08304
sına	-9.08385
▁alanı	-9.08435
▁Halk	-9.08708
▁sağ	-9.08803
▁Diğer	-9.08885
▁şarkıcı	-9.08982
▁Japonya	-9.09037
▁MÖ	-9.09328
▁ara	-9.09498
▁kardeşi	-9.09514
ında	-9.09652
▁maçında	-9.09712
▁Be	-9.09764
▁defa	-9.09771
▁yayınlanan	-9.09817
▁göç	-9.09858
▁durum	-9.09929
▁izin	-9.10058
▁Mehmet	-9.10134
▁Bizans	-9.10242
leme	-9.10294
▁seçildi	-9.10353
▁İsrail	-9.10356
pa	-9.10378
▁ederek	-9.10395
▁parçası	-9.10407
▁piyasaya	-9.10539
zi	-9.1056
▁kariyerine	-9.10655
▁Mustafa	-9.10682
Y	-9.10826
van	-9.10826
▁profesyonel	-9.11161
=16	-9.11169
▁sosyal	-9.11285
ner	-9.11354
▁İki	-9.1158
▁olmuş	-9.11641
▁çalışan	-9.11643
▁Yahudi	-9.11829
İ	-9.11957
▁bilinir	-9.11983
▁bölge	-9.1217
▁sanat	-9.12298
▁e	-9.12396
="11	-9.12397
larıyla	-9.12438
▁üzerinden	-9.12481
▁2018	-9.12513
▁Japon	-9.12673
▁Azerbaycan	-9.12802
ip	-9.13003
gan	-9.1302
dığı	-9.13152
▁Yarışması	-9.13208
▁döndü	-9.13212
▁sahne	-9.1333
▁Eski	-9.1334
▁birinci	-9.13393
▁edilmiş	-9.13473
▁tiyatro	-9.1353
▁Do	-9.13638
▁50	-9.13672
▁tipi	-9.13908
▁kontrol	-9.13966
▁Ca	-9.14083
▁oluşur	-9.14106
▁Bazı	-9.14112
▁İslam	-9.14131
▁boş	-9.14248
▁tamamen	-9.14358
▁Londra	-9.14503
▁W	-9.14602
=3	-9.14636
▁galaksidir	-9.14779
▁Man	-9.148
▁ağır	-9.15025
▁İkinci	-9.15205
▁dil	-9.15251
▁Yaz	-9.15323
▁yok	-9.15347
""	-9.15377
▁%	-9.15442
▁Asya	-9.15591
fa	-9.15743
▁Eurovision	-9.16012
▁maçı	-9.16059
▁bölgesinde	-9.16175
▁Köy	-9.16237
▁Futbol	-9.16331
▁babası	-9.1637
▁Ni	-9.16434
▁An	-9.16481
mesi	-9.1651
21	-9.16841
=25	-9.16847
▁bölümü	-9.16994
ot	-9.17052
▁2003	-9.17498
▁Yunan	-9.17687
ev	-9.17734
="25	-9.17777
▁sona	-9.17787
sının	-9.17807
30	-9.17931
▁enerji	-9.1797
▁Başkanı	-9.17988
▁şarkısı	-9.17989
▁kendisine	-9.18068
50	-9.18182
▁at	-9.18221
▁verdiği	-9.18257
sh	-9.18321
▁belediye	-9.18571
▁bağımsız	-9.18573
▁serbest	-9.18674
sinin	-9.1874
=22	-9.18855
Bu	-9.19016
▁yapmış	-9.19248
▁düşük	-9.19333
▁Di	-9.19376
▁anda	-9.19467
▁yapılmıştır	-9.19547
▁dış	-9.19672
iş	-9.19758
▁olmasına	-9.19861
kar	-9.1987
▁yani	-9.19987
▁şehirdir	-9.20246
▁Merkezi	-9.20317
▁Krallık	-9.2039
▁içeren	-9.20403
iye	-9.2043
▁ulusal	-9.20464
▁Pa	-9.20471
▁Te	-9.20656
▁beyaz	-9.20671
▁Ve	-9.20749
tür	-9.20749
▁verildi	-9.21308
▁alarak	-9.21317
mer	-9.21355
▁ileri	-9.21474
▁Lo	-9.21652
ül	-9.2169
▁nedenle	-9.21761
▁Sovyetler	-9.21766
▁kitap	-9.22014
ça	-9.22018
▁kara	-9.22088
▁seçimleri	-9.22093
▁doğal	-9.22183
▁kızı	-9.22251
▁Grup	-9.22439
▁Can	-9.22547
çı	-9.22604
▁final	-9.2265
▁diye	-9.2267
lük	-9.22727
▁Şehir	-9.22898
diği	-9.2297
ja	-9.23161
ına	-9.23203
▁karşısında	-9.23378
▁Örneğin	-9.23417
▁s	-9.23428
▁So	-9.23432
▁İtalyan	-9.23653
▁başkenti	-9.23668
▁yoktur	-9.23688
▁yapıldı	-9.23756
▁Si	-9.23825
▁altın	-9.23866
▁spor	-9.2396
▁iken	-9.23979
▁kötü	-9.24009
▁olsa	-9.24029
▁Buna	-9.24128
▁Devleti	-9.24336
▁yardımcı	-9.24374
ster	-9.24432
▁Ordu	-9.24522
id	-9.24541
▁Beyaz	-9.24576
liğe	-9.24759
▁Fenerbahçe	-9.24956
ji	-9.25169
▁futbolcu	-9.25172
▁Avusturya	-9.25347
▁verir	-9.25679
▁Galatasaray	-9.2569
▁merkez	-9.2569
▁arası	-9.25799
▁şehri	-9.25844
▁ekonomik	-9.25871
▁2001	-9.25912
sında	-9.26064
▁Z	-9.26152
="19	-9.26363
fi	-9.26417
▁stüdyo	-9.26433
▁Ta	-9.2644
▁yılının	-9.26447
▁batı	-9.26495
▁yayınlandı	-9.26681
▁Ama	-9.26768
▁kat	-9.26776
▁Burada	-9.268
▁çalışma	-9.26904
▁dünyanın	-9.26919
▁günümüzde	-9.26936
22	-9.26949
▁Deniz	-9.2704
▁türü	-9.27111
▁Arap	-9.27115
▁sayesinde	-9.27133
bo	-9.27148
▁Yüksek	-9.27225
▁yoğun	-9.27257
▁to	-9.27279
ah	-9.27435
▁hayatını	-9.27726
▁Suriye	-9.27748
▁kuruldu	-9.2775
▁Merkez	-9.27843
▁Şehrin	-9.27962
sk	-9.28015
mek	-9.28032
▁40	-9.28186
▁No	-9.28191
▁adına	-9.28222
▁al	-9.28261
70	-9.28266
=6	-9.28307
ger	-9.28561
▁parti	-9.28651
▁Kar	-9.28663
▁yaş	-9.28687
X	-9.28779
▁göz	-9.28808
▁hale	-9.28898
▁Ka	-9.28916
▁Dr	-9.28982
▁TV	-9.29169
▁siyasetçi	-9.2922
▁derece	-9.29222
▁kazanan	-9.29255
▁zorunda	-9.29373
▁Öz	-9.2947
▁yalnızca	-9.29518
▁Or	-9.29519
▁modern	-9.29645
▁sene	-9.29728
▁hızlı	-9.29893
ad	-9.29899
–	-9.29943
▁Türkçe	-9.29958
ly	-9.30109
ğı	-9.3013
▁sürekli	-9.30208
▁kazanmıştır	-9.30354
▁şey	-9.30408
▁ilgi	-9.30427
▁sonrası	-9.3043
▁Ra	-9.30459
▁Toplam	-9.30593
▁yazdığı	-9.30641
18	-9.30653
unu	-9.30704
land	-9.30756
▁takımyıldızı	-9.30798
▁Süper	-9.30808
▁kuzey	-9.30894
▁Co	-9.31062
▁Başkanlığı	-9.31088
▁lig	-9.31174
▁oynanan	-9.31198
▁Altın	-9.31203
▁dünyaya	-9.31221
▁Müzik	-9.31223
▁Vi	-9.31224
iz	-9.31234
ut	-9.31299
▁1999	-9.31324
▁Ana	-9.31346
▁Ödülleri	-9.31408
▁sanatçı	-9.31455
▁kendini	-9.31624
dy	-9.31637
▁Avustralya	-9.3175
▁hiç	-9.31776
▁İl	-9.31799
▁alanında	-9.31917
▁St	-9.31923
▁Olimpiyatları	-9.32278
▁Böylece	-9.32292
11	-9.3238
▁çift	-9.32384
▁öldü	-9.32451
▁bunu	-9.32621
▁FC	-9.32726
sayımına	-9.3273
▁single	-9.3279
▁tarih	-9.32893
am	-9.33016
▁çıkmıştır	-9.33062
▁edilmektedir	-9.33093
▁sol	-9.33141
▁Yunanistan	-9.33157
▁Ben	-9.33204
▁UEFA	-9.33211
▁Ahmet	-9.33247
▁Du	-9.33249
▁yazarı	-9.33258
▁Kanada	-9.33377
▁zor	-9.33395
▁gelmiştir	-9.33478
▁araştırma	-9.33509
▁yüzyıl	-9.3359
▁aşağıdaki	-9.33659
▁top	-9.33745
▁ışık	-9.33885
90	-9.34028
▁4.	-9.34101
40	-9.34177
▁attı	-9.34199
▁Mar	-9.34357
▁2019	-9.34364
▁Kuvvetleri	-9.34431
▁Lisesi	-9.34446
▁puan	-9.34477
▁artık	-9.34519
▁satın	-9.34734
▁kurulmuş	-9.34751
▁değer	-9.34753
▁arkadaşı	-9.3483
▁kültür	-9.34905
▁Windows	-9.34978
▁üye	-9.35044
ay	-9.35054
▁etme	-9.35111
▁madalya	-9.35263
▁Bölgesi	-9.3554
▁Go	-9.35541
bir	-9.35771
▁Hava	-9.35891
▁ilçesinde	-9.35891
▁giriş	-9.3596
▁bölgede	-9.36038
▁Kore	-9.36076
▁yıldız	-9.36084
ının	-9.36115
izm	-9.36244
tar	-9.36279
▁To	-9.3639
▁&	-9.36424
80	-9.36619
▁kendisi	-9.36705
▁çalışmaları	-9.36793
let	-9.36873
▁yaşam	-9.36881
60	-9.36957
▁tamamladı	-9.36971
▁halinde	-9.37026
lığa	-9.37096
19	-9.37098
▁Mi	-9.37148
Z	-9.37183
▁Hollanda	-9.3722
▁isim	-9.37229
▁Kıbrıs	-9.37247
▁III	-9.37319
ey	-9.37348
▁Ri	-9.37377
▁Po	-9.37459
▁model	-9.37683
▁Kurulu	-9.37704
▁görevi	-9.37761
ecek	-9.37863
▁yüzyılın	-9.37878
▁güney	-9.38026
▁keşfedilmiştir	-9.3806
▁Van	-9.38096
▁metal	-9.38336
▁çaplı	-9.38386
▁As	-9.38478
▁Y	-9.38478
=15	-9.38631
▁resmî	-9.38655
▁ordusu	-9.38685
▁yedi	-9.38723
▁aile	-9.38742
ku	-9.38798
▁taşıyan	-9.3884
▁kan	-9.38849
▁yan	-9.38897
▁etmiş	-9.38985
▁asker	-9.39227
▁William	-9.39262
▁Ba	-9.39323
15	-9.39348
lin	-9.39378
12	-9.39519
▁di	-9.39528
▁olma	-9.39561
yen	-9.39582
17	-9.39591
▁Polonya	-9.39654
▁Ro	-9.39806
▁tarihli	-9.39883
▁kişilik	-9.39938
▁yönelik	-9.40153
▁Belediye	-9.40253
▁Ke	-9.403
ör	-9.40365
▁doğu	-9.40401
▁Lu	-9.4052
▁etkisi	-9.40677
▁popüler	-9.40708
▁görülür	-9.40793
La	-9.40885
▁Köyün	-9.40963
▁tarihleri	-9.40963
▁yapmaktadır	-9.41121
mon	-9.41172
lanan	-9.4127
▁oyunu	-9.41303
▁eşi	-9.41313
▁üzerindeki	-9.41427
▁bilgisayar	-9.41438
25	-9.41453
▁takip	-9.41553
▁In	-9.41561
shi	-9.41767
▁Fa	-9.41767
▁fark	-9.4193
tü	-9.41943
▁Okulu	-9.42004
J	-9.42043
▁veri	-9.42065
▁gösteren	-9.42344
▁sınırları	-9.42425
▁yabancı	-9.42526
▁yazdı	-9.42589
▁inç	-9.42595
▁tahmin	-9.42761
▁kurdu	-9.42849
▁gösterir	-9.42873
▁oy	-9.42883
▁içerir	-9.42896
▁ödül	-9.42935
▁Tek	-9.43053
▁yazı	-9.43171
▁söyledi	-9.43178
▁gelmektedir	-9.43214
▁konusu	-9.43287
NGC	-9.43333
pe	-9.43353
▁bölüm	-9.43443
▁dair	-9.43463
▁verilmiştir	-9.43479
▁He	-9.43543
▁re	-9.43552
▁Cumhuriyet	-9.4361
▁altına	-9.4368
▁adında	-9.43773
▁ince	-9.43876
▁hak	-9.43878
▁gece	-9.43942
▁silah	-9.43972
▁Enstitüsü	-9.44038
▁yüz	-9.44198
▁sırasıyla	-9.44227
▁ayrımı	-9.44311
▁grubun	-9.44322
▁milletvekili	-9.44339
▁Festivali	-9.44392
24	-9.44462
▁ili	-9.44465
▁dördüncü	-9.44485
▁Profesyonel	-9.44581
▁1998	-9.44588
per	-9.44608
▁şirketi	-9.44632
65	-9.44674
▁astronom	-9.44813
▁Muhammed	-9.44873
ru	-9.44911
▁County	-9.44911
▁ilçesi	-9.44932
▁canlı	-9.44934
▁FIFA	-9.45045
▁madde	-9.45066
▁Kemal	-9.45078
▁bölümünde	-9.45169
28	-9.45204
▁sistem	-9.45254
ova	-9.45272
▁kişinin	-9.45301
▁takımında	-9.45369
ok	-9.45438
▁İsveç	-9.45567
▁kullanarak	-9.45594
▁saha	-9.456
gu	-9.45626
▁Hindistan	-9.45657
14	-9.45661
="6	-9.45691
▁Ordusu	-9.45731
▁öne	-9.45765
▁1997	-9.45774
▁çünkü	-9.46059
ren	-9.46087
▁etki	-9.46109
▁kitabı	-9.46189
▁görevini	-9.46461
▁örnek	-9.46521
▁1996	-9.4655
▁dizisi	-9.46575
▁oyuncusu	-9.46625
48	-9.46668
▁1990	-9.4667
▁sağlar	-9.46734
75	-9.46793
ker	-9.46942
▁Berlin	-9.46948
▁Michael	-9.46952
mar	-9.47025
26	-9.47115
▁belirli	-9.47138
99	-9.4725
▁kendisini	-9.47328
▁süren	-9.47336
▁açıkladı	-9.47364
▁sınır	-9.47411
ebilir	-9.47682
▁normal	-9.47794
▁Li	-9.47851
▁ordu	-9.47893
▁tercih	-9.47953
▁terk	-9.48004
wa	-9.48024
▁çizgi	-9.48112
▁radyo	-9.48184
▁uzak	-9.48185
▁[[	-9.48259
chi	-9.48345
▁Akdeniz	-9.48361
▁James	-9.48381
▁işgal	-9.48387
▁geleneksel	-9.48419
▁yüzden	-9.48549
▁İç	-9.48569
▁1992	-9.48636
▁çocuğu	-9.48768
▁sözleşme	-9.48772
▁bulunmuştur	-9.48816
%	-9.48833
▁vermiştir	-9.48845
▁kesin	-9.48875
▁gaz	-9.48912
▁Irak	-9.4908
▁1995	-9.49103
▁David	-9.49254
▁On	-9.49299
45	-9.49427
▁Ku	-9.49558
▁yük	-9.49605
fe	-9.49619
▁şehrinde	-9.49698
▁kullanılmıştır	-9.4972
▁19.	-9.49754
▁parça	-9.50065
▁filmin	-9.50065
▁eğitimi	-9.50106
▁İlçenin	-9.50174
▁tane	-9.50186
ic	-9.50214
▁denir	-9.50243
min	-9.50359
▁başarı	-9.50487
kullanılmaktadır	-9.50558
▁finalde	-9.50694
▁yeri	-9.50807
pi	-9.50821
▁kar	-9.5084
64	-9.5087
▁dini	-9.50877
▁Beşiktaş	-9.51076
▁yapmak	-9.51171
27	-9.51276
▁taş	-9.51278
▁Krallığı	-9.5135
▁açısından	-9.51503
nce	-9.51565
▁Bununla	-9.51621
▁Pe	-9.51651
▁dikkat	-9.51676
▁sebep	-9.51767
▁mevcuttur	-9.5192
▁söyler	-9.51925
can	-9.51943
▁annesi	-9.51949
▁kulübünde	-9.5199
76	-9.52
ng	-9.52109
23	-9.52112
ür	-9.52282
▁mevcut	-9.52405
▁yapılmış	-9.52406
▁kaynağı	-9.52526
anlam	-9.52527
="18	-9.52571
▁yaz	-9.52583
69	-9.52626
72	-9.52707
▁böylece	-9.528
▁k	-9.52857
▁Müslüman	-9.52879
▁ma	-9.52882
▁Fe	-9.52886
▁1994	-9.52925
▁gitti	-9.52935
▁elektrik	-9.52975
je	-9.53011
▁müziği	-9.53051
▁ortalama	-9.53063
▁Günümüzde	-9.53186
▁(),	-9.53231
▁Kral	-9.5336
▁/	-9.5336
▁Paul	-9.5345
▁yerini	-9.53459
▁Eğitim	-9.5347
▁kararı	-9.53738
▁Ga	-9.53766
les	-9.53861
▁eş	-9.53888
▁kuzeyinde	-9.53898
▁Bursa	-9.53924
▁belli	-9.53971
▁takımın	-9.54175
▁Pi	-9.54181
▁Özellikle	-9.54255
▁şirket	-9.54358
▁Güneş	-9.54406
▁1993	-9.54414
▁1991	-9.54424
71	-9.54485
▁Grubu	-9.54565
)"	-9.546
▁doğrudan	-9.54606
▁sağlayan	-9.54615
▁kaybetti	-9.54679
01	-9.54697
▁üretim	-9.54707
▁Kızıl	-9.54717
▁üyeleri	-9.54838
liğini	-9.54885
layan	-9.54901
▁teleskopla	-9.54931
▁çevre	-9.54957
▁dili	-9.5497
▁kırmızı	-9.55062
46	-9.55082
â	-9.55157
▁Pro	-9.55209
]]	-9.5525
▁uygulama	-9.5533
▁Ci	-9.55339
lanmış	-9.55371
▁etmeye	-9.5538
▁uzay	-9.55455
▁yaşadığı	-9.55558
▁kaynak	-9.55658
▁giren	-9.55717
▁Muharebesi	-9.55773
▁oluştuğu	-9.55827
▁zengin	-9.55829
37	-9.55848
▁der	-9.55859
86	-9.55989
Ma	-9.56005
▁başta	-9.56068
▁adamı	-9.56234
ıp	-9.56239
ho	-9.56327
▁amacı	-9.5636
dar	-9.56419
68	-9.56461
78	-9.56539
▁oynadığı	-9.56547
=18	-9.56597
▁Bakanı	-9.56663
▁Ermeni	-9.56671
▁nasıl	-9.56672
▁yolu	-9.56715
▁Meclisi	-9.568
74	-9.56805
lenen	-9.5681
▁Bunlar	-9.56822
▁etkili	-9.56826
yo	-9.5686
▁hala	-9.56893
var	-9.57019
▁Küçük	-9.57205
44	-9.57215
▁roman	-9.57276
▁olay	-9.5728
▁takımının	-9.57384
▁Katalog	-9.57385
36	-9.57407
▁dakika	-9.57444
▁Gökyüzünde	-9.57495
▁(18	-9.57507
92	-9.57564
bar	-9.57786
▁Baş	-9.57795
tepe	-9.57798
ği	-9.57876
so	-9.57894
inden	-9.57994
Ö	-9.58013
▁Moskova	-9.5805
▁kökenli	-9.58088
▁almış	-9.58267
▁içindeki	-9.58269
▁ticaret	-9.58276
vo	-9.58301
acak	-9.58308
73	-9.58385
kları	-9.58386
▁0	-9.58453
33	-9.5855
▁alındı	-9.58708
▁Sal	-9.58753
ny	-9.58788
Ha	-9.58791
▁üretilen	-9.58925
▁yönetimi	-9.59001
▁ayrıldı	-9.59006
29	-9.59047
▁Cor	-9.5915
yon	-9.59158
▁giydi	-9.5921
yum	-9.59233
▁Kur	-9.5934
fer	-9.59372
▁olmadığı	-9.59454
▁alınan	-9.59475
▁Robert	-9.59677
▁Spor	-9.59729
▁öğrenci	-9.59793
▁bölgesi	-9.59838
66	-9.59946
▁2011'	-9.59994
leşmiş	-9.60033
▁60	-9.60062
▁Ver	-9.60193
▁katı	-9.60306
hi	-9.60326
▁la	-9.60378
35	-9.60445
▁et	-9.60447
gar	-9.6047
ser	-9.60482
▁5.	-9.60572
dere	-9.606
▁edilmesi	-9.60632
▁kent	-9.60639
▁yükseldi	-9.60677
up	-9.60679
▁bilinmektedir	-9.60766
08	-9.60833
po	-9.60849
eli	-9.60907
Ş	-9.61057
abilir	-9.61216
▁Ti	-9.61311
▁ölüm	-9.61316
34	-9.614
▁=	-9.61417
▁dalga	-9.61426
▁ölçüde	-9.61473
▁biçimde	-9.6148
▁buna	-9.61503
Se	-9.61519
95	-9.61531
▁sınıf	-9.61556
▁tur	-9.61646
Ar	-9.61779
▁savunma	-9.61826
▁Kaliforniya	-9.6186
met	-9.61862
▁Savaş	-9.6189
▁İsviçre	-9.61959
▁Per	-9.62049
▁bitirdi	-9.62092
88	-9.62143
63	-9.62144
▁hatta	-9.62186
85	-9.62275
▁aktif	-9.6235
77	-9.62379
▁siyah	-9.62417
ım	-9.62432
san	-9.62467
▁seçim	-9.62483
▁tarım	-9.62496
▁Aday	-9.62508
▁kurulu	-9.6252
03	-9.62547
▁sebebiyle	-9.62615
▁Derneği	-9.62652
89	-9.62682
▁değişik	-9.62695
▁Birinci	-9.62771
ers	-9.62827
lak	-9.62831
iyle	-9.62916
38	-9.62941
▁ziyaret	-9.62953
91	-9.62975
rak	-9.63116
▁karakter	-9.63117
▁Ho	-9.63163
▁kalmıştır	-9.63256
▁Ja	-9.63329
▁Müdürlüğü	-9.63379
başı	-9.63391
▁2009'	-9.63407
87	-9.63436
▁başlarında	-9.63474
ll	-9.63478
▁2012'	-9.63484
▁Portekiz	-9.63524
▁Stadyumu	-9.63549
▁Bi	-9.6363
ie	-9.63694
▁Müzesi	-9.63696
▁ka	-9.6385
▁ülkede	-9.63869
▁hükûmet	-9.63964
=13	-9.63977
▁At	-9.64055
▁Britanya	-9.64126
▁yapma	-9.6419
▁toprak	-9.64274
ius	-9.64309
▁oluşmaktadır	-9.64344
47	-9.64375
▁bazen	-9.6439
▁arka	-9.64399
▁Millî	-9.64477
▁Akademisi	-9.64526
ion	-9.64651
▁araya	-9.64666
▁anlaşma	-9.64688
▁mi	-9.64706
<	-9.64757
▁durumda	-9.64799
▁Tüm	-9.64811
lanır	-9.6483
▁Mu	-9.64855
▁dışı	-9.6496
▁2008'	-9.64969
▁Sanat	-9.65014
▁Şu	-9.65034
▁Hasan	-9.65045
▁Çok	-9.65069
▁durumu	-9.65089
em	-9.65092
06	-9.65156
▁Şah	-9.652
▁özelliği	-9.65294
▁insanların	-9.65366
film	-9.65367
▁yayımlanan	-9.65478
lanma	-9.65544
58	-9.65628
▁almak	-9.65669
49	-9.65683
="12	-9.65708
56	-9.65723
▁şampiyon	-9.65729
Sa	-9.65778
62	-9.65795
▁geçirdi	-9.65827
97	-9.65872
▁f	-9.659
▁Ge	-9.65905
▁gördü	-9.65909
▁gücü	-9.6597
▁Gül	-9.65974
io	-9.66086
▁kendine	-9.6609
din	-9.66113
En	-9.66113
▁bilimsel	-9.66143
▁yapılır	-9.66169
▁200	-9.66203
67	-9.66257
á	-9.66411
]	-9.66466
▁Sonuçlar	-9.66523
05	-9.66721
▁Gi	-9.66757
▁göstermektedir	-9.66772
▁Hristiyan	-9.66813
ham	-9.6683
kin	-9.66834
▁güneyinde	-9.66934
▁geçer	-9.66937
▁yönetmen	-9.66967
=10	-9.66982
▁ak	-9.67
liğin	-9.67089
▁City	-9.67136
51	-9.67223
▁Za	-9.67227
▁çalışmalar	-9.67249
▁pozisyonunda	-9.6735
lardı	-9.67416
az	-9.67635
nca	-9.67638
▁sekiz	-9.67742
▁Kadınlar	-9.67746
Me	-9.67803
▁saldırı	-9.67846
lenmiş	-9.67847
▁arada	-9.67854
Ka	-9.67935
▁zarar	-9.67946
▁nüfusunun	-9.68053
▁gelebilir	-9.6807
▁öğretim	-9.68163
▁çapında	-9.682
▁bitki	-9.68229
▁Hu	-9.68252
unun	-9.68272
▁yayımlandı	-9.68306
="10	-9.68328
61	-9.68353
32	-9.6837
▁konser	-9.68378
▁Efendi	-9.68395
▁ailesi	-9.68463
52	-9.68507
▁klasik	-9.68651
sin	-9.68653
07	-9.68673
tal	-9.68701
▁2007'	-9.68707
▁faaliyet	-9.68873
▁sefer	-9.68934
39	-9.69004
▁Atatürk	-9.69008
▁yüzünden	-9.69054
Le	-9.69112
▁Ol	-9.69122
▁birisi	-9.69125
▁İspanyol	-9.69221
ron	-9.69238
02	-9.6925
94	-9.69303
▁atandı	-9.69388
▁orijinal	-9.69395
▁Yine	-9.69405
▁teslim	-9.69524
ık	-9.69525
▁dönemin	-9.69526
Al	-9.69555
▁sabit	-9.69579
▁baskı	-9.69625
▁geçiş	-9.69712
ks	-9.69717
▁gerekli	-9.69722
▁do	-9.69739
ss	-9.69807
▁Albüm	-9.69812
▁polis	-9.69841
▁Con	-9.6989
▁Kadın	-9.69928
▁çoğunlukla	-9.69949
▁yapmaya	-9.69975
▁ısı	-9.70028
▁erken	-9.70126
ts	-9.70161
▁sarı	-9.70189
▁yayınladı	-9.70288
▁listesinde	-9.70433
▁dönemi	-9.70598
▁üniversite	-9.70617
▁suç	-9.70633
▁Ya	-9.70639
▁Dönem	-9.70677
ez	-9.70742
▁ulaştı	-9.70786
▁okul	-9.70945
96	-9.70951
55	-9.71029
▁karşılık	-9.71035
▁kilise	-9.71062
▁32	-9.71062
▁ada	-9.71068
▁içine	-9.71084
he	-9.71183
▁sert	-9.71194
▁şair	-9.71225
▁Bölümü	-9.71274
▁yapar	-9.71299
▁imza	-9.71368
▁g	-9.71369
▁gemi	-9.7137
ret	-9.71446
▁geç	-9.71482
ap	-9.71512
▁performans	-9.71513
▁Üç	-9.71576
maya	-9.71591
▁nedeni	-9.71622
com	-9.71681
▁ateş	-9.71699
▁2016'	-9.71757
▁programı	-9.71925
▁adam	-9.71981
kleri	-9.72023
▁bazıları	-9.72061
▁Osman	-9.72163
▁yavaş	-9.72271
!	-9.72295
ty	-9.7231
Geçersiz	-9.72343
▁2015'	-9.72356
▁maçına	-9.72369
▁oluşturur	-9.7237
▁Camii	-9.72388
▁filmde	-9.72404
▁Tanrı	-9.72413
▁1989	-9.72453
▁Gölü	-9.72455
▁Karadeniz	-9.72523
▁Süleyman	-9.72528
▁getirildi	-9.72537
54	-9.72559
▁eser	-9.72563
lay	-9.72609
▁emekli	-9.72632
▁kulüp	-9.72653
▁onları	-9.72667
▁İbrahim	-9.7268
а	-9.72682
▁Hukuk	-9.72705
▁yerde	-9.7283
▁Los	-9.72843
ian	-9.72845
98	-9.72911
▁olacak	-9.72945
▁kullanımı	-9.72954
▁eseri	-9.7298
▁yüzey	-9.7301
▁günlük	-9.73012
▁Aydın	-9.73098
▁güzel	-9.73208
▁alanda	-9.73218
▁Sivas	-9.73267
▁yarış	-9.73279
▁ticari	-9.73307
▁Va	-9.73367
▁halkı	-9.73415
▁Peter	-9.73423
▁mm	-9.73552
▁plan	-9.73564
▁2014'	-9.73569
▁oluşturan	-9.73627
▁Kilisesi	-9.73644
ından	-9.73649
▁hazır	-9.73681
▁Kültür	-9.73737
▁karşın	-9.73748
▁2010'	-9.73776
▁Oyuncu	-9.7383
57	-9.73836
▁henüz	-9.73856
▁verilir	-9.74025
ris	-9.74041
▁35	-9.74051
▁kralı	-9.74144
▁Car	-9.74151
▁bağ	-9.74191
▁kale	-9.742
79	-9.74284
▁çalışmaya	-9.74313
▁engel	-9.74336
▁2013'	-9.74337
▁işaret	-9.74341
▁Bal	-9.74347
▁neredeyse	-9.74378
▁Kan	-9.74392
▁dolayısıyla	-9.74573
▁öncesi	-9.74594
od	-9.74691
ünü	-9.74693
▁insanlar	-9.74716
▁Eğer	-9.74745
▁Mac	-9.74938
▁filminde	-9.7503
▁Microsoft	-9.75125
ina	-9.75215
▁önünde	-9.75234
▁Es	-9.75255
▁lideri	-9.75278
▁tedavi	-9.75286
31	-9.75312
▁Dil	-9.75414
tin	-9.75516
▁mümkün	-9.75527
landı	-9.75541
▁1980	-9.75549
▁Uzun	-9.75599
▁hayvan	-9.75648
▁sonradan	-9.75735
▁resim	-9.75752
▁kalma	-9.75823
▁renk	-9.75844
▁anlamlara	-9.75861
▁yaparak	-9.75977
▁George	-9.76105
▁sivil	-9.76206
▁General	-9.76236
▁gerçekleştiril	-9.76256
▁çıkış	-9.76264
▁sağladı	-9.76274
▁olmadığını	-9.76286
▁tahta	-9.76328
▁seri	-9.76376
=24	-9.76406
="24	-9.76444
▁Federasyonu	-9.7649
▁şöyle	-9.76645
▁internet	-9.76672
▁Brezilya	-9.76684
▁Charles	-9.76724
ant	-9.76785
▁gerek	-9.76838
▁itibarı	-9.76909
▁ismini	-9.76967
ven	-9.76971
ış	-9.77014
▁Ukrayna	-9.77094
▁yapım	-9.77137
▁kol	-9.77253
▁kişidir	-9.77295
▁sanayi	-9.77307
▁asıl	-9.77332
ang	-9.77334
▁i	-9.77384
▁Adana	-9.77412
▁sahipliği	-9.77431
▁yapısı	-9.77433
▁hedef	-9.77451
▁standart	-9.77477
▁Birçok	-9.77484
▁2017'	-9.77608
▁hakkı	-9.77679
▁Trabzon	-9.77719
▁yandan	-9.77728
▁Erzurum	-9.77746
sch	-9.77757
▁2020	-9.77758
▁Gürcistan	-9.77772
luğu	-9.77796
▁açtı	-9.78025
▁haber	-9.78095
▁6.	-9.78098
▁proje	-9.78146
De	-9.7817
▁araç	-9.78179
▁kentinde	-9.78185
▁bugün	-9.78195
83	-9.78274
▁as	-9.783
▁Jean	-9.78339
▁Park	-9.78407
▁1988	-9.78461
▁Babası	-9.78471
▁Basketbol	-9.78504
▁alma	-9.78528
42	-9.78556
▁yoluyla	-9.78596
▁ilişki	-9.78679
43	-9.78681
▁ilinde	-9.78719
ıl	-9.78759
▁TBMM	-9.78822
▁lisans	-9.78904
▁özellikleri	-9.78954
una	-9.78961
▁geldiği	-9.78965
uk	-9.78972
▁p	-9.79051
04	-9.79087
▁yere	-9.79096
▁geçmiştir	-9.79139
▁Oyunları	-9.79192
▁kişiler	-9.79196
▁Pan	-9.79224
▁şampiyonu	-9.79262
ici	-9.79282
Ne	-9.79285
93	-9.79322
▁sağlık	-9.79369
2'	-9.79374
▁olduğundan	-9.79382
▁gözlem	-9.79443
▁Gün	-9.79459
▁b	-9.79537
▁üretimi	-9.79549
asyon	-9.79708
▁Ki	-9.79731
▁Bulgaristan	-9.79805
cık	-9.79864
▁konuşma	-9.79932
=19	-9.79943
▁gösterdi	-9.80015
ıyor	-9.80104
▁Konseyi	-9.80178
▁Ardından	-9.80253
▁şiir	-9.80288
▁nokta	-9.80334
▁bas	-9.80353
▁Tra	-9.80405
09	-9.80443
▁dağ	-9.80449
▁1987	-9.80459
hane	-9.80478
▁katılan	-9.80478
▁sağlamak	-9.80479
▁etmesi	-9.80483
▁İrlanda	-9.80645
▁aslında	-9.80717
▁1960	-9.80728
yken	-9.80801
▁sürdü	-9.8081
▁motor	-9.80832
▁Grand	-9.8095
▁Dağı	-9.80969
▁başlamış	-9.8102
▁doğumlu	-9.81043
ard	-9.8105
▁Gu	-9.81135
▁1970	-9.81219
▁Var	-9.81252
▁fiziksel	-9.8126
▁ağ	-9.81278
▁basit	-9.81325
▁c	-9.81342
don	-9.81391
▁yerli	-9.81398
▁yıllar	-9.81419
▁1986	-9.81433
mıştı	-9.81462
▁takımına	-9.81463
ino	-9.81473
▁Mü	-9.81493
cü	-9.81534
▁World	-9.81553
▁Chi	-9.81615
▁orada	-9.81616
▁devre	-9.81641
▁yurt	-9.81686
▁zayıf	-9.81704
▁hukuk	-9.81734
▁güneş	-9.81751
nes	-9.81788
▁kapsamında	-9.81881
▁Sam	-9.81884
bey	-9.81988
▁Kralı	-9.82003
▁Adası	-9.82013
▁gizli	-9.82026
53	-9.8206
▁görüntü	-9.82129
▁:	-9.82186
▁1990'	-9.82259
▁aralarında	-9.82267
▁dile	-9.82487
dü	-9.82507
▁45	-9.82578
▁görülen	-9.82619
81	-9.82619
▁genelde	-9.82622
▁Wa	-9.82662
las	-9.82668
ac	-9.82709
▁hız	-9.82711
tz	-9.82769
▁ölümünden	-9.82818
tt	-9.82824
▁evlendi	-9.82965
▁İnsan	-9.83008
82	-9.83038
net	-9.83092
▁1984	-9.83099
▁liste	-9.83113
▁rock	-9.83205
sta	-9.83237
▁My	-9.83241
▁Belçika	-9.83288
zo	-9.83312
▁Oyun	-9.83344
▁ödülü	-9.83348
▁Özel	-9.83403
▁girmiştir	-9.83426
▁seçilmiştir	-9.83436
zan	-9.83551
lüğü	-9.83567
▁doğan	-9.83598
off	-9.83706
▁güvenlik	-9.83733
▁sarmal	-9.83741
59	-9.83746
sü	-9.83796
lığını	-9.83798
▁Hüseyin	-9.83834
▁uçak	-9.83854
▁asit	-9.83938
q	-9.83998
▁NBA	-9.83999
▁başardı	-9.84101
▁idari	-9.8434
▁asıllı	-9.84375
▁şehridir	-9.84383
laşma	-9.84407
š	-9.8447
ment	-9.84527
41	-9.84533
▁finale	-9.84612
▁kültürel	-9.84643
▁yaşındayken	-9.84651
▁aynalı	-9.84766
▁Sosyal	-9.84796
▁Ev	-9.84854
▁Komünist	-9.84874
▁albümün	-9.84945
▁Teknik	-9.84951
▁istifa	-9.84975
ası	-9.8506
▁‘	-9.8508
mp	-9.85109
rit	-9.85167
▁dek	-9.8519
uş	-9.85234
▁Yu	-9.85283
0.000	-9.85283
▁adlandırılan	-9.85339
▁aşırı	-9.8539
▁halka	-9.85457
▁vefat	-9.85472
▁se	-9.85531
▁toplum	-9.85582
leşme	-9.85799
ıcı	-9.85888
▁yaşadı	-9.85915
▁kuvvetleri	-9.85942
▁1980'	-9.86014
▁zamanında	-9.86036
-1	-9.86141
▁Fransızca	-9.86167
muş	-9.86223
▁1982	-9.86289
▁sonuç	-9.86317
▁iletişim	-9.86318
▁Denizi	-9.8639
if	-9.86503
▁Mer	-9.86558
▁koruma	-9.86609
▁doğum	-9.8665
▁Angeles	-9.8666
mann	-9.86678
vin	-9.8673
▁oynayan	-9.86758
▁Antalya	-9.86789
miz	-9.86792
▁içi	-9.86955
▁vermektedir	-9.87008
▁Tri	-9.87062
▁olduğuna	-9.87094
▁mal	-9.87123
▁oldukları	-9.87255
▁noktası	-9.87375
▁Hi	-9.87381
▁giderek	-9.87394
▁ciddi	-9.87406
▁Is	-9.87418
▁Martin	-9.87487
lis	-9.87495
▁toplamda	-9.87522
▁Tom	-9.87558
suz	-9.87575
▁Samsun	-9.87577
ski	-9.87584
▁köyün	-9.87729
▁mahalle	-9.87735
84	-9.87805
▁barış	-9.87907
ana	-9.87928
▁Demir	-9.87967
▁çalışması	-9.88
▁Genç	-9.88016
Re	-9.88101
▁Şa	-9.88105
▁Ara	-9.88148
▁Erkekler	-9.88162
▁Havalimanı	-9.88165
op	-9.88201
▁gereken	-9.88253
kı	-9.88272
▁Cha	-9.88285
=	-9.88297
lanması	-9.88298
▁bunların	-9.88381
▁Meksika	-9.88494
▁pazar	-9.88576
taş	-9.88597
Do	-9.88617
▁onların	-9.88626
▁halde	-9.88741
▁Belediyesi	-9.8875
▁geçmiş	-9.88773
▁1985	-9.88775
▁Yerli	-9.88781
▁Sosyalist	-9.88828
▁yayınlanmıştır	-9.88845
▁çekildi	-9.88853
▁20.	-9.88906
▁sa	-9.88913
▁1983	-9.88926
uz	-9.88962
rat	-9.88981
▁Nazi	-9.89014
▁Ö	-9.89044
||	-9.89088
▁sayılı	-9.89109
▁hafif	-9.89158
▁Doktor	-9.89247
▁bunlar	-9.89271
▁Eyaleti	-9.8929
▁Sta	-9.89533
▁biraz	-9.89553
▁düzey	-9.8969
▁getirdi	-9.89704
▁2006'	-9.89707
şa	-9.89712
▁hızla	-9.89727
▁Tiyatrosu	-9.89743
▁Filmin	-9.89782
ize	-9.89786
▁bölgesine	-9.89872
bel	-9.89893
▁Ser	-9.89948
▁dik	-9.89968
▁Macaristan	-9.90043
▁Ad	-9.90062
▁katıldığı	-9.90093
▁kullanılabilir	-9.9017
ros	-9.9027
▁giden	-9.90285
gerçekleştirilen	-9.90364
▁ekiplerinden	-9.90441
Bo	-9.90492
▁Ye	-9.90522
▁babasıdır	-9.90532
▁kasaba	-9.90539
▁yılda	-9.90547
▁ilişkin	-9.90554
▁aracılığıyla	-9.90581
▁Dışişleri	-9.90686
▁Tur	-9.90767
ä	-9.90769
-18	-9.90776
▁League	-9.9078
▁gerekir	-9.90791
▁babasının	-9.90819
▁Mehmed	-9.90828
ent	-9.90867
▁Kal	-9.9089
▁düşünce	-9.90911
▁sonlarında	-9.91004
Mi	-9.91043
▁birbirine	-9.9105
▁von	-9.9108
▁ila	-9.91139
▁aksine	-9.91147
▁You	-9.91168
▁Çek	-9.91198
▁Dar	-9.91218
▁sıvı	-9.91225
▁1970'	-9.91306
ünün	-9.91344
▁Har	-9.91369
▁90	-9.9138
▁böyle	-9.91422
▁"(	-9.9145
lenir	-9.91457
▁orman	-9.91478
▁2018'	-9.91491
che	-9.9152
="2"|	-9.91534
ban	-9.91571
▁antik	-9.91615
nik	-9.91615
ong	-9.91687
▁teknoloji	-9.917
▁gider	-9.91706
kal	-9.91758
▁otomobil	-9.91806
▁yılındaki	-9.91866
Bir	-9.91887
▁ortadan	-9.91929
▁Am	-9.91955
siyle	-9.9196
▁köyü	-9.92044
▁Norveç	-9.92044
▁belirtti	-9.92045
▁Bay	-9.92062
▁cami	-9.92069
▁milyar	-9.92082
▁civarında	-9.92118
▁for	-9.92174
by	-9.92177
▁ölmüştür	-9.92275
▁Yüzölçümü	-9.92311
▁7.	-9.92323
▁yılın	-9.92341
▁amaçlı	-9.9238
▁bölgeye	-9.92407
sinden	-9.92409
cilik	-9.92451
▁ressam	-9.92453
tis	-9.92471
▁Güzel	-9.92597
▁Hitler	-9.92612
tor	-9.92628
▁kullanan	-9.92693
▁işlem	-9.92701
▁kulübü	-9.9271
▁Adam	-9.92759
▁Hint	-9.92765
▁Tu	-9.92781
▁dönüş	-9.92791
▁Venedik	-9.92885
baş	-9.92896
iyet	-9.92924
▁ikisi	-9.9293
▁düzenli	-9.93103
pınar	-9.93119
▁Evli	-9.93128
▁batısında	-9.93152
▁esas	-9.93171
▁bıraktı	-9.93242
▁sonuçları	-9.93252
ladı	-9.93337
▁Mal	-9.93359
▁basketbol	-9.93394
▁edilebilir	-9.9348
▁dans	-9.93508
▁hücre	-9.93534
zu	-9.93544
lendi	-9.93574
meye	-9.93622
om	-9.93644
▁eline	-9.93658
▁doğusunda	-9.93693
▁kullanıldı	-9.93733
▁Katolik	-9.93778
▁İş	-9.93788
▁önem	-9.93791
▁kuvvet	-9.93819
▁müze	-9.93824
▁çekti	-9.9384
▁beşinci	-9.93892
▁ta	-9.93971
▁Antlaşması	-9.93972
▁sanatçısı	-9.93978
Katılım	-9.94023
▁pro	-9.94061
▁Ber	-9.94075
▁Bölge	-9.941
sıyla	-9.94109
lim	-9.94127
▁gümüş	-9.94142
▁serisi	-9.94245
▁ad	-9.94294
▁imzaladı	-9.94335
▁edebiyat	-9.94343
jo	-9.94367
▁Ek	-9.94412
▁derin	-9.94434
▁Olimpiyat	-9.94513
▁Ju	-9.94538
▁kuş	-9.94604
▁çalışır	-9.94634
▁merkezli	-9.94659
kov	-9.94706
▁Bel	-9.94751
▁esir	-9.94766
▁başlıca	-9.94778
▁Kent	-9.948
▁sıcak	-9.94827
cılık	-9.94851
▁kişisel	-9.94853
▁satış	-9.94877
▁Mor	-9.95015
▁kolay	-9.95028
rt	-9.95055
▁araba	-9.9508
▁Richard	-9.95159
▁kimyasal	-9.95165
▁birimi	-9.95184
▁IV	-9.95268
lat	-9.95319
▁gazeteci	-9.95386
▁düşman	-9.95434
▁eşit	-9.95501
▁durumunda	-9.95514
▁geçmektedir	-9.95618
▁Ahmed	-9.95651
▁[	-9.95702
▁hüküm	-9.95733
▁yeşil	-9.95771
lılar	-9.95869
▁kral	-9.95879
▁kg	-9.95899
▁Konya	-9.9592
▁almaya	-9.95942
▁sezonda	-9.95984
berg	-9.96023
hu	-9.96085
▁sezonunun	-9.96098
▁ister	-9.96191
▁birliği	-9.96231
▁yönetmenliğini	-9.96278
▁er	-9.96304
▁United	-9.96392
har	-9.9643
▁hükûmeti	-9.96455
▁Çağ	-9.96492
ara	-9.96523
▁politik	-9.9655
▁yasa	-9.96625
▁Şampiyonlar	-9.96672
▁Dağları	-9.96692
▁karakteri	-9.96695
▁Milletler	-9.96714
▁Finlandiya	-9.9693
ral	-9.96948
▁yağ	-9.97064
="6"	-9.9707
▁zamanlarda	-9.97164
=11	-9.97169
▁ekonomi	-9.97212
▁Fi	-9.97243
▁Başkan	-9.97387
▁katılmıştır	-9.97415
▁Top	-9.97431
▁tasarım	-9.97455
▁Cumhurbaşkanı	-9.97475
▁Ş	-9.97486
▁ettiler	-9.97505
▁web	-9.97585
lon	-9.97628
ō	-9.97636
▁oynamıştır	-9.97653
▁cinsel	-9.97663
▁Sarı	-9.97683
▁Gar	-9.97687
▁yorum	-9.97691
▁küme	-9.9779
▁hakları	-9.97803
▁Kış	-9.97825
▁seyahat	-9.97863
▁demir	-9.97877
ft	-9.97924
▁seçimlerinde	-9.97934
▁gazete	-9.97958
▁1981	-9.97969
▁anlamda	-9.98036
▁yaşanan	-9.98099
▁rolü	-9.98111
▁Ru	-9.98133
▁kayıt	-9.98137
▁buldu	-9.98156
▁elinde	-9.98161
eti	-9.98199
maz	-9.98372
▁Kısa	-9.98395
▁idam	-9.98411
▁yara	-9.98433
▁ligi	-9.98437
▁Ed	-9.98466
▁isteyen	-9.98507
▁dalında	-9.98525
▁1972	-9.98527
▁33	-9.98548
▁kilometre	-9.98604
▁Açık	-9.98633
lenme	-9.98661
▁kullandığı	-9.98665
▁Danimarka	-9.98677
▁Adaları	-9.9868
▁Sol	-9.98696
▁Don	-9.9877
▁darbe	-9.98869
▁Baba	-9.98915
Kara	-9.99031
▁Louis	-9.99049
▁kap	-9.99062
▁Diyarbakır	-9.99109
▁gerçekleşen	-9.99113
▁Ata	-9.99142
▁Love	-9.99204
▁düz	-9.99206
▁telefon	-9.99232
lanmıştır	-9.99234
▁Atina	-9.99333
ling	-9.99427
▁Pers	-9.99569
▁kas	-9.99602
▁bakımından	-9.9963
▁Records	-9.99634
▁Ab	-9.99648
▁Kim	-9.99693
▁pop	-9.9972
oloji	-9.99732
▁Meclis	-9.99732
▁idare	-9.99775
▁vergi	-9.99799
ther	-9.99811
▁maça	-9.99834
▁Hacı	-9.99892
▁lise	-9.99903
▁aracı	-9.99935
que	-10.0004
▁Jo	-10.001
▁test	-10.0014
▁kulüplerinde	-10.0014
kaya	-10.0023
▁2019'	-10.0026
ud	-10.0027
▁gerektiğini	-10.0027
▁80	-10.0032
▁numaraya	-10.0038
▁kullanım	-10.0047
▁sonuna	-10.0051
eceği	-10.0052
▁hayat	-10.0053
▁Yıldız	-10.0055
▁Arapça	-10.0055
▁1974	-10.0064
▁Cu	-10.0066
▁yazılmış	-10.0071
dal	-10.0072
▁başkan	-10.0079
▁eserleri	-10.0082
▁isyan	-10.009
▁Tarih	-10.0094
▁Ter	-10.0096
▁ders	-10.0096
▁çıkardı	-10.0103
▁taşındı	-10.0103
ire	-10.0106
▁kullanılarak	-10.0106
▁günümüze	-10.0107
▁Herschel	-10.0116
aj	-10.0117
▁Komitesi	-10.013
▁ekibi	-10.0131
▁1979	-10.0136
▁Yo	-10.0142
▁Taş	-10.0143
▁dava	-10.0152
▁örgüt	-10.0154
▁modeli	-10.0157
▁Henry	-10.0158
▁Tan	-10.0162
▁gören	-10.0162
▁Adaylık	-10.0165
▁başlandı	-10.0173
▁bağlantı	-10.0176
ff	-10.0177
▁vb	-10.0183
▁yeterli	-10.0192
▁dünyada	-10.0197
▁Genellikle	-10.0198
▁direktör	-10.0204
Si	-10.0206
▁Romanya	-10.0206
▁davet	-10.0206
▁70	-10.0214
▁sezonun	-10.0224
&	-10.0232
▁Murat	-10.0234
▁av	-10.0236
í	-10.0236
▁başladığı	-10.0238
▁Yer	-10.0238
▁ödülünü	-10.0243
Ya	-10.0243
▁Tar	-10.0244
▁gitar	-10.0251
▁görülmektedir	-10.0255
▁yaşamaktadır	-10.026
▁savaşı	-10.0262
▁İlçe	-10.0262
▁mavi	-10.0269
▁kıyı	-10.0269
▁kon	-10.0272
▁tehdit	-10.0272
▁Papa	-10.0273
sından	-10.0273
▁Sar	-10.0276
▁1978	-10.0279
▁1971	-10.0282
▁ton	-10.0282
▁Tam	-10.0283
Be	-10.0288
giller	-10.0308
her	-10.0323
▁1960'	-10.0324
▁Fer	-10.0333
▁yemek	-10.0338
▁karmaşık	-10.0338
▁giyen	-10.0342
▁İsmail	-10.0345
▁gemisi	-10.0351
▁önde	-10.0351
▁Thomas	-10.0351
▁olumlu	-10.0359
▁işlemi	-10.0368
▁sorumlu	-10.0368
isi	-10.037
▁kaza	-10.0376
▁Üniversite	-10.0377
▁sinir	-10.0379
▁teklif	-10.0379
unda	-10.0382
▁müzisyen	-10.0393
▁Tiyatro	-10.0398
▁tarzı	-10.0404
▁hareketi	-10.0408
▁iklim	-10.0409
▁kamu	-10.0409
▁sergi	-10.0413
е	-10.0414
▁yanlış	-10.0414
▁hesap	-10.0422
hat	-10.0433
▁hattı	-10.0434
Ü	-10.0441
▁kopya	-10.0442
▁ayrılır	-10.0448
▁oluşturduğu	-10.0451
▁vermek	-10.0456
▁çevresinde	-10.0456
val	-10.0466
▁yazılım	-10.0467
▁ülkeler	-10.047
▁Val	-10.0472
ney	-10.0472
▁klip	-10.0474
▁Kudüs	-10.0484
▁göl	-10.0488
▁yakınlarında	-10.049
▁alınmıştır	-10.049
İngilizce	-10.049
▁Antik	-10.0493
▁Latin	-10.0494
▁önceden	-10.0495
▁ikili	-10.0497
▁1950	-10.0497
▁mağlup	-10.0498
▁saf	-10.0507
▁adlandırılır	-10.051
▁görüş	-10.051
▁yazılan	-10.0518
Mo	-10.0522
▁program	-10.0526
lem	-10.0526
▁1969	-10.053
▁Roman	-10.0531
şi	-10.0533
▁1973	-10.0533
▁Jackson	-10.0544
▁ayı	-10.0546
▁Kırım	-10.0549
▁versiyonu	-10.0554
▁Bor	-10.0554
▁Fatih	-10.056
▁istedi	-10.0561
cik	-10.0565
▁anti	-10.0566
▁oynamaktadır	-10.0567
Na	-10.0568
oz	-10.0568
▁Vakfı	-10.0569
▁bölgenin	-10.0569
▁Star	-10.057
iyor	-10.0574
▁Ce	-10.0586
▁Yönetim	-10.0587
▁sıcaklık	-10.0587
▁Gazi	-10.059
▁değeri	-10.06
▁1968	-10.0602
▁yönetmeni	-10.0603
▁renkli	-10.0611
▁kendisinin	-10.0613
▁birlikleri	-10.0614
▁Takım	-10.0615
▁Final	-10.0615
▁Kastamonu	-10.0616
▁1965	-10.0617
▁bina	-10.0633
ktedir	-10.0635
▁yönettiği	-10.0635
▁Sonra	-10.0637
Ra	-10.0637
▁kurucusu	-10.0642
▁halkın	-10.0642
▁reklam	-10.0643
▁tren	-10.0647
ep	-10.0651
▁1977	-10.0653
▁kalp	-10.0659
▁sürdürdü	-10.0661
▁çıkmış	-10.0662
Di	-10.0662
▁Çanakkale	-10.0663
▁etkin	-10.0663
pp	-10.0664
şe	-10.0666
▁All	-10.0668
idir	-10.0672
layarak	-10.0677
▁buz	-10.0677
▁senesinde	-10.0682
▁geçici	-10.0682
▁ürün	-10.0699
▁olaylar	-10.0702
▁temsilcisi	-10.0708
▁opera	-10.0712
▁Cup	-10.0713
▁kadınlar	-10.0715
▁gösteri	-10.0716
▁Apple	-10.0717
▁gelmiş	-10.0717
▁Gürcü	-10.0719
▁İsa	-10.0724
▁Kaya	-10.073
▁petrol	-10.0731
▁toplumsal	-10.0733
▁West	-10.0733
▁geçirdiği	-10.0738
tay	-10.0738
▁benzeri	-10.0739
▁koyu	-10.074
▁eğer	-10.0745
▁dolar	-10.0746
▁medya	-10.0747
▁verme	-10.0752
▁Sırbistan	-10.0753
▁adım	-10.0757
res	-10.0757
eri	-10.0757
▁felsefe	-10.0765
▁ceza	-10.0767
▁forması	-10.0768
▁Sch	-10.0768
▁kapı	-10.0776
▁Şam	-10.0782
ou	-10.079
▁kal	-10.079
gel	-10.079
▁Saint	-10.0793
▁doğa	-10.0796
▁komedi	-10.0797
▁sebebi	-10.08
▁Bunların	-10.08
▁1976	-10.0804
▁başarısı	-10.0814
▁Tarihi	-10.0819
▁şekil	-10.082
▁1964	-10.082
▁hikâye	-10.0824
▁Madrid	-10.0824
▁Çünkü	-10.0828
mekteydi	-10.0833
▁etrafında	-10.0833
sar	-10.0839
о	-10.0841
▁kanıt	-10.0844
▁500	-10.0846
▁1967	-10.0848
▁Rock	-10.0856
▁devletin	-10.0858
yse	-10.0859
▁Akademi	-10.0863
▁esnasında	-10.0863
û	-10.0864
tus	-10.0864
▁kanalı	-10.0866
▁yola	-10.0867
▁Maria	-10.0868
▁Kürt	-10.0874
▁Mark	-10.0881
▁Savunma	-10.0884
ıyla	-10.089
▁hayatı	-10.0891
▁kır	-10.0897
▁sürede	-10.09
▁Bundan	-10.0908
Te	-10.0912
Ç	-10.092
▁kısmında	-10.0922
▁gelişmiş	-10.0926
▁ailesinin	-10.0928
▁desteği	-10.093
ysa	-10.0942
▁me	-10.0951
▁Viyana	-10.0951
▁kapalı	-10.0965
▁görevine	-10.0966
▁hasta	-10.0968
dor	-10.0968
▁1975	-10.0969
▁kuru	-10.0972
▁soğuk	-10.0978
▁rapor	-10.0979
▁süresi	-10.0982
▁sınıfı	-10.099
▁Yan	-10.0996
▁1961	-10.0996
▁başkanlığı	-10.0999
lamıştır	-10.1003
▁düştü	-10.1007
▁hakim	-10.101
▁ağaç	-10.1016
▁eserler	-10.1016
▁grubunun	-10.1017
▁etnik	-10.1019
▁yapılması	-10.1019
▁geçerek	-10.1022
▁Washington	-10.1023
tes	-10.1027
▁2005'	-10.1036
▁hayatına	-10.1045
▁Ger	-10.1047
▁Ren	-10.1049
▁Frank	-10.1052
▁varlığı	-10.1055
acağı	-10.1063
▁kaydetti	-10.1069
▁DNA	-10.1077
zen	-10.1079
▁Dan	-10.1081
▁yapılmaktadır	-10.1081
▁kıyısında	-10.1083
▁hangi	-10.1085
dığını	-10.1087
bet	-10.1089
▁yazılı	-10.1097
▁elektronik	-10.1099
▁adayı	-10.11
▁°	-10.1102
lam	-10.1102
▁Ömer	-10.1103
▁1966	-10.1103
▁çoğunluğu	-10.1104
▁birisidir	-10.1111
▁olmakla	-10.1113
▁şarkının	-10.112
▁şampiyonluğu	-10.1125
▁dergi	-10.1129
ktadır	-10.113
▁belge	-10.1133
▁ayak	-10.1136
altı	-10.1137
▁Arnavutluk	-10.1137
cha	-10.1146
Q	-10.1147
▁tepe	-10.115
▁suyu	-10.1154
▁takımlarından	-10.1154
▁altındaki	-10.1158
▁Sha	-10.1175
▁olmadan	-10.1179
▁hayatta	-10.1181
▁Komutanlığı	-10.1181
▁edildiği	-10.1189
▁erkekler	-10.1189
gin	-10.1193
▁miktarda	-10.1194
▁gelişme	-10.1196
▁Sen	-10.1206
▁İmparator	-10.1237
▁korku	-10.1238
▁eğitimini	-10.1247
mat	-10.125
▁köprü	-10.125
▁açılan	-10.1258
▁dağılımı	-10.1262
▁yolcu	-10.1275
▁öncesinde	-10.128
we	-10.1282
▁yanına	-10.1285
▁ihtiyaç	-10.1289
▁akım	-10.129
mişti	-10.129
▁terimi	-10.1291
▁köle	-10.1294
Ta	-10.1295
▁Lee	-10.1302
dil	-10.1306
▁komutanı	-10.1313
yar	-10.1314
ow	-10.1314
▁Parkı	-10.1316
▁yapıldığı	-10.1321
▁dizisinde	-10.1322
▁denilen	-10.1322
▁işçi	-10.1322
▁Edirne	-10.1326
▁Par	-10.1327
▁edip	-10.133
El	-10.1333
▁+	-10.1336
▁besteci	-10.1337
▁is	-10.1342
▁şunlardır	-10.1343
stan	-10.1344
▁Selçuklu	-10.1348
▁çıktığı	-10.1348
▁Kayseri	-10.1362
▁36	-10.1366
yordu	-10.1367
▁şehirde	-10.1369
▁Köyü	-10.1375
▁kaya	-10.1377
▁mahallesi	-10.1383
ağı	-10.1389
▁hızı	-10.1392
▁Adalet	-10.1392
▁gen	-10.1396
Li	-10.1398
▁Kulübü	-10.1402
▁kanal	-10.141
lardaki	-10.1411
▁takımlar	-10.1411
▁kullanır	-10.1414
▁Araştırma	-10.1419
▁ürünleri	-10.1422
▁ortasında	-10.1423
idae	-10.1426
▁boyu	-10.1427
▁Google	-10.1431
▁yaşlı	-10.1432
▁basın	-10.1436
▁talep	-10.1436
▁bugünkü	-10.1444
tion	-10.1451
▁romanı	-10.1452
Ba	-10.1457
▁maruz	-10.1462
▁saray	-10.1465
cılar	-10.1466
▁tepki	-10.1467
▁gösterildi	-10.1468
▁Wi	-10.1472
▁WWE	-10.1474
▁kod	-10.1476
▁Del	-10.1477
▁Mon	-10.1481
"<	-10.1481
▁gruba	-10.1481
▁ötürü	-10.1484
sidir	-10.1485
▁bünyesinde	-10.1487
av	-10.1493
▁başarısız	-10.1493
▁Kalesi	-10.1499
▁İn	-10.1501
abilen	-10.1502
▁bilgiler	-10.1503
'</	-10.1504
▁bölümde	-10.1512
ledi	-10.1513
▁Fo	-10.1515
kta	-10.1517
▁Rum	-10.1518
▁işletme	-10.1519
▁Fin	-10.152
sey	-10.1522
▁mü	-10.1526
▁rengi	-10.1528
▁Hay	-10.1533
▁bit	-10.1534
▁zamanla	-10.1538
▁yerleşti	-10.1538
▁türlü	-10.154
▁yirmi	-10.1542
mez	-10.1546
▁1945	-10.1547
▁Hot	-10.1549
▁Ze	-10.1553
▁örneğin	-10.1561
▁Mc	-10.1566
gü	-10.1566
▁Mahkemesi	-10.157
To	-10.1571
▁dergisi	-10.1576
▁Ermenistan	-10.158
ab	-10.1581
▁1963	-10.159
▁Pu	-10.16
zar	-10.1601
и	-10.1611
▁Men	-10.1611
▁özgü	-10.1622
ó	-10.1628
▁Erkek	-10.1629
▁arazi	-10.1631
▁Sarayı	-10.1633
▁mu	-10.1634
▁Kon	-10.1635
lanarak	-10.1637
▁aileden	-10.1638
▁ilişkiler	-10.164
▁Milli	-10.1656
▁bağlıdır	-10.1657
▁Joseph	-10.1657
▁hal	-10.1658
▁We	-10.1658
▁olacaktır	-10.1662
▁Cephesi	-10.1668
▁ederken	-10.1669
kon	-10.1672
▁attığı	-10.1674
▁asist	-10.1676
▁İs	-10.1679
▁ederler	-10.1686
ras	-10.1688
ram	-10.1689
Türkiye	-10.1691
▁uzaklıkta	-10.1695
▁unvanını	-10.1699
▁hazırlık	-10.1701
▁Devrimi	-10.1705
lenmiştir	-10.1708
▁tarafında	-10.1712
▁34	-10.1718
▁Barış	-10.172
nd	-10.1725
▁kamera	-10.1729
▁seyirci	-10.1733
▁Bosna	-10.1741
ınca	-10.1741
▁filmidir	-10.1748
▁ayrılmıştır	-10.1749
▁Bra	-10.175
▁ülkelerde	-10.1754
▁karısı	-10.1755
ağa	-10.1756
▁sistemleri	-10.1758
ben	-10.1761
▁üstlendi	-10.1763
▁aşağı	-10.1764
▁fotoğraf	-10.1764
lidir	-10.1765
▁zamanlar	-10.1767
▁kelime	-10.1768
▁Mahallenin	-10.1772
▁türüdür	-10.1775
▁san	-10.1776
▁sürümü	-10.178
▁Ticaret	-10.1784
▁yakıt	-10.1787
▁or	-10.1793
▁Makedonya	-10.1795
▁1956	-10.1797
▁pi	-10.18
▁genelinde	-10.18
▁Beş	-10.1801
▁türleri	-10.1804
til	-10.181
▁eşlik	-10.1813
▁Mersin	-10.1814
▁gönderildi	-10.1815
▁imparator	-10.182
qui	-10.1825
▁katkıda	-10.1829
ril	-10.1833
▁be	-10.1833
▁açıdan	-10.184
▁eleme	-10.1841
▁kuruluş	-10.1845
evi	-10.1846
▁kenti	-10.1847
▁onlara	-10.1848
the	-10.1858
▁yoğunluğu	-10.1858
ğa	-10.1864
par	-10.1866
▁kazandığı	-10.1869
▁art	-10.1869
▁x	-10.187
▁Kor	-10.1876
▁oluşturulan	-10.1885
▁Zi	-10.1891
▁Ağa	-10.1893
▁Onun	-10.1897
▁eyalet	-10.1899
▁38	-10.1901
▁aittir	-10.1901
▁kurucu	-10.1907
iyordu	-10.1909
▁liman	-10.191
▁Büyükşehir	-10.1914
▁kalın	-10.1917
ans	-10.1921
▁atan	-10.1922
▁yarışı	-10.1924
=9	-10.1924
▁gördüğü	-10.1928
Türk	-10.1933
ıdır	-10.1934
▁Üçüncü	-10.1938
+	-10.1939
▁Bulgar	-10.194
ice	-10.1943
▁sahipti	-10.1945
kat	-10.1945
▁sporcu	-10.1947
▁Almanca	-10.1952
▁Ege	-10.1962
▁kış	-10.1968
▁sözleri	-10.1968
yor	-10.197
▁ailenin	-10.197
zer	-10.1972
▁Bankası	-10.1973
▁tarihinin	-10.1979
▁Fu	-10.1981
▁ilişkileri	-10.1982
esi	-10.1985
▁Kitap	-10.1988
▁Tor	-10.1992
hr	-10.1994
▁geliştirme	-10.1994
▁mimari	-10.1998
▁tanrı	-10.2004
▁Q	-10.2004
▁açıldı	-10.2005
▁uygulaması	-10.2008
▁tanınan	-10.2008
▁önüne	-10.2014
č	-10.2021
▁tarihlerinde	-10.2033
▁yardımcısı	-10.2039
▁seçilen	-10.2047
tti	-10.2048
lek	-10.205
▁Bre	-10.2051
▁Aziz	-10.2056
▁erdi	-10.2057
▁Show	-10.2059
▁yumurta	-10.2062
▁savaşın	-10.2063
▁çalışmalarına	-10.2063
▁üyesidir	-10.2065
▁evinde	-10.2066
An	-10.2067
▁kalır	-10.2069
▁katılma	-10.207
▁düşünülmektedir	-10.207
▁yöntemi	-10.207
▁öğretmen	-10.2072
▁göstermiştir	-10.2075
▁belirgin	-10.2081
wi	-10.2081
▁projesi	-10.2082
▁marka	-10.2082
▁gösterdiği	-10.2082
mal	-10.2085
Su	-10.2087
▁ediyor	-10.2091
istan	-10.2097
▁karşılığında	-10.2098
▁oda	-10.2098
▁Bunlardan	-10.2102
▁Zaman	-10.2104
▁Hol	-10.2106
▁yazmıştır	-10.2112
▁uç	-10.2113
▁ayaklanma	-10.2114
▁durumlarda	-10.2114
▁siyaset	-10.2115
▁manyetik	-10.212
▁Haçlı	-10.2125
ecektir	-10.213
ation	-10.2134
▁can	-10.2139
▁başkent	-10.214
▁Sırp	-10.2142
▁ruh	-10.2144
▁Altı	-10.2149
▁kurum	-10.215
▁fizik	-10.2151
­	-10.2153
▁yarışma	-10.2154
▁yazılmıştır	-10.2157
▁Black	-10.2158
▁Hanedanı	-10.2163
▁birer	-10.2168
▁yapımcı	-10.2168
▁yöntem	-10.2169
▁Eskişehir	-10.2169
▁galibiyet	-10.2172
▁kardeş	-10.2172
▁Tıp	-10.2172
iç	-10.2178
18,7	-10.218
gor	-10.2182
▁yaptıkları	-10.2183
▁çeşit	-10.2192
▁Karl	-10.2194
▁Sağlık	-10.2205
▁yüzde	-10.2208
▁8.	-10.2208
▁Macar	-10.221
▁kanat	-10.221
▁Kurtuluş	-10.2212
▁1962	-10.2214
▁öz	-10.2215
▁üstünde	-10.2215
masına	-10.2216
▁oyuncular	-10.222
▁bundan	-10.2224
stra	-10.2225
▁Kendi	-10.2225
▁adının	-10.2225
▁köşe	-10.2226
mik	-10.2227
▁uzunluğu	-10.2227
▁korumak	-10.2233
▁Demokratik	-10.2242
▁Video	-10.2253
▁47,5	-10.2253
▁Far	-10.226
tel	-10.226
▁kurduğu	-10.226
rma	-10.2263
▁cevap	-10.2266
▁no	-10.2267
▁tanı	-10.2267
▁Av	-10.2268
▁sınırlı	-10.2269
▁disk	-10.2274
nis	-10.2278
for	-10.2278
▁dokuz	-10.2285
▁Hal	-10.2287
▁Pop	-10.2289
▁ordusunun	-10.2289
ung	-10.2295
▁kütle	-10.2298
▁golünü	-10.2301
leyici	-10.2301
▁Ada	-10.2302
rik	-10.2302
▁Doğan	-10.2302
▁kaldığı	-10.2306
▁Demokrat	-10.2306
▁2004'	-10.2312
▁nesil	-10.2314
▁ölümü	-10.2328
▁Kız	-10.2329
Pa	-10.233
▁tak	-10.2332
▁Az	-10.2335
▁malzeme	-10.2335
▁del	-10.2336
▁mimar	-10.2341
▁açıklama	-10.2346
ıyordu	-10.2351
mir	-10.2351
oid	-10.2354
▁dilleri	-10.2355
▁bulunması	-10.2359
▁Arjantin	-10.2362
▁Bur	-10.2363
mu	-10.2364
▁numara	-10.2365
▁dijital	-10.237
▁anne	-10.237
leyen	-10.2378
▁Boy	-10.2379
▁cam	-10.2381
bas	-10.2381
▁h	-10.2387
▁solo	-10.2387
ura	-10.2388
▁jüri	-10.2388
olog	-10.2393
▁kullanma	-10.2406
▁uzanan	-10.241
ano	-10.2411
▁Güvenlik	-10.2411
▁For	-10.2417
▁değildi	-10.2424
▁9.	-10.2433
▁plak	-10.2443
▁takıma	-10.2444
▁hastalık	-10.2452
▁teorisi	-10.2453
▁hat	-10.2462
bit	-10.2463
▁Selim	-10.2463
gun	-10.2466
yev	-10.2468
▁sözcüğü	-10.2469
▁37	-10.2469
▁süper	-10.2475
▁teşvik	-10.2477
▁Gök	-10.2478
▁nüfusun	-10.2479
lığın	-10.2483
▁gruplar	-10.2484
Mar	-10.2487
▁İşçi	-10.2487
▁Ülke	-10.2494
▁yarışması	-10.2498
▁Modern	-10.25
▁Göl	-10.25
▁kullanılması	-10.2501
▁Alp	-10.2501
ier	-10.2502
▁ko	-10.2503
ciler	-10.2504
▁boya	-10.2505
▁TRT	-10.2506
▁askerî	-10.2506
▁Bugün	-10.251
▁kanun	-10.2513
rı	-10.2515
▁açıklandı	-10.2518
▁yılların	-10.2519
_1	-10.252
▁Söz	-10.2525
▁dev	-10.2526
▁Sel	-10.2526
▁(;	-10.2529
veya	-10.2532
▁ben	-10.2535
▁1958	-10.2543
▁Prof	-10.2544
▁dolu	-10.2549
bra	-10.2557
▁Türkmen	-10.2565
▁parlak	-10.2568
▁turda	-10.2573
Yeni	-10.2574
▁Music	-10.2577
▁çocukları	-10.259
lerdeki	-10.2591
liler	-10.2593
ılır	-10.2596
low	-10.2603
ville	-10.2605
▁Aşağıdaki	-10.2605
▁bar	-10.2606
▁gösterilmiştir	-10.2606
lerdi	-10.2607
▁Filistin	-10.2612
`	-10.2616
▁yaşamış	-10.2619
bal	-10.2621
▁One	-10.2629
▁gelecek	-10.263
▁dilinde	-10.263
▁Angel	-10.2636
▁muharebe	-10.2637
▁şampiyonluk	-10.2638
ılan	-10.2644
▁hasar	-10.2645
▁Kay	-10.2645
▁çözüm	-10.2651
▁dersleri	-10.2653
▁park	-10.2656
top	-10.2656
▁açı	-10.2658
▁Abdullah	-10.2658
▁duyurdu	-10.266
▁Sun	-10.2666
gün	-10.2669
▁Jack	-10.2671
▁ülkesi	-10.2674
▁kart	-10.2676
▁alternatif	-10.2676
▁İlçesi	-10.2677
diğini	-10.2681
▁anlamı	-10.2683
▁derecede	-10.2687
▁formasını	-10.2689
▁olmaya	-10.2691
▁tanım	-10.2691
▁bayrağı	-10.2695
mus	-10.2707
▁bak	-10.2708
ec	-10.2708
laş	-10.2709
çu	-10.2711
ju	-10.2712
▁işbirliği	-10.2715
▁hastalığı	-10.2715
▁yargı	-10.2715
▁Mel	-10.2717
müş	-10.2721
mı	-10.2725
▁18.	-10.2733
▁Red	-10.2735
▁işletim	-10.2735
lenmesi	-10.274
bin	-10.2742
▁Oğuz	-10.2743
▁Manisa	-10.2748
▁dönemlerde	-10.2749
▁öykü	-10.2753
▁sahil	-10.2759
▁sisteminin	-10.2766
▁1950'	-10.2769
▁ke	-10.2771
▁İli	-10.2775
▁yasal	-10.2775
▁paralel	-10.2782
▁kısmını	-10.2782
▁şarkıları	-10.2783
▁öğrencisi	-10.2783
▁aylarında	-10.2784
▁Şirket	-10.2784
▁tıp	-10.2792
▁vurgu	-10.2793
▁seçimi	-10.2793
▁tanesi	-10.2797
▁ölü	-10.2798
▁uçuş	-10.2799
tma	-10.2803
▁albümleri	-10.2805
▁taarruz	-10.2805
▁1959	-10.2811
▁kavramı	-10.2817
▁nükleer	-10.2818
▁Kale	-10.282
▁du	-10.2823
mis	-10.2827
▁demiryolu	-10.2832
bor	-10.2836
rin	-10.2836
▁göreve	-10.2837
▁Sonraki	-10.2837
▁çekilen	-10.2837
ps	-10.2838
▁Balıkesir	-10.2841
▁Sur	-10.2842
bur	-10.2843
▁Yunanca	-10.2845
▁()	-10.2845
▁Manchester	-10.2845
▁görür	-10.2847
muştur	-10.2852
ama	-10.2853
abilecek	-10.286
▁kaydı	-10.2861
▁analiz	-10.2862
▁kur	-10.2863
▁Asyalı	-10.2867
▁Daniel	-10.2877
▁Bütün	-10.2881
▁görme	-10.2884
▁yayımladı	-10.2885
▁300	-10.2887
▁takımda	-10.2888
au	-10.2889
▁arasına	-10.289
▁taşı	-10.289
lıdır	-10.2893
▁değişiklik	-10.2898
▁tanınmış	-10.2902
▁“"	-10.2906
▁geliştirilen	-10.291
-2	-10.2913
▁Balkan	-10.2914
▁alanları	-10.2915
▁Hanım	-10.2916
▁satışa	-10.2918
lit	-10.292
▁alması	-10.2923
▁merkezinde	-10.2925
kor	-10.2928
▁2020'	-10.2928
▁1954	-10.293
▁Kurt	-10.2932
▁dizinin	-10.2937
▁teori	-10.2939
üm	-10.2941
▁meyve	-10.2951
▁saldırısı	-10.2955
▁Kurumu	-10.2966
▁1920	-10.297
▁Para	-10.297
▁yerlerde	-10.2971
ladığı	-10.2972
bil	-10.2972
▁Albümün	-10.2974
▁çalışmıştır	-10.2975
▁yenerek	-10.2978
bek	-10.2978
mur	-10.2979
▁silahlı	-10.2981
sıdır	-10.2983
▁sıklıkla	-10.2992
▁Edward	-10.2994
▁güven	-10.2997
▁Yarı	-10.2997
▁1946	-10.3
▁insanın	-10.3001
▁Real	-10.3009
▁duvar	-10.3012
▁başı	-10.3013
zade	-10.3018
▁Tour	-10.3026
▁hane	-10.3035
▁protein	-10.3036
▁Başbakan	-10.3036
▁Kendisi	-10.304
▁Alan	-10.3042
▁birimleri	-10.3046
▁kendilerini	-10.305
one	-10.3051
▁sonu	-10.3052
▁Live	-10.3054
uri	-10.3055
▁taşır	-10.306
▁insanları	-10.306
▁olmasını	-10.3061
у	-10.3064
▁çıkardığı	-10.3064
▁numaralı	-10.3069
▁karakterini	-10.3069
▁dar	-10.3069
▁nehir	-10.3071
ā	-10.3071
▁balık	-10.3074
▁edecek	-10.3083
masını	-10.3083
▁acı	-10.3084
▁Ur	-10.3084
liğine	-10.3087
▁turnuva	-10.3087
▁görevinden	-10.309
▁mezunudur	-10.3097
mekte	-10.3097
▁Belediyespor	-10.3099
lip	-10.31
▁1957	-10.3101
dis	-10.3102
▁bakan	-10.3102
▁taşıma	-10.3103
▁dönen	-10.3107
▁şiddet	-10.3109
▁muhtemelen	-10.3114
▁Yılmaz	-10.3119
▁1944	-10.312
▁toplama	-10.3122
▁Sin	-10.3124
▁bölgelerde	-10.3127
In	-10.313
▁Gençlik	-10.3133
▁tarihte	-10.3134
eb	-10.3136
▁ekran	-10.3138
▁CD	-10.3141
▁Litvanya	-10.3146
aklı	-10.3148
▁hariç	-10.315
▁bakış	-10.315
▁42	-10.3151
pen	-10.3154
▁ilçedir	-10.3156
▁boy	-10.316
▁Sezon	-10.316
▁çalışmalarını	-10.3164
▁algı	-10.3164
▁harita	-10.3165
▁ettiğini	-10.3166
gg	-10.3169
▁vokal	-10.3169
▁kullanıcı	-10.317
▁büyü	-10.3174
="1"	-10.3176
▁uydu	-10.318
▁filmleri	-10.3182
▁Prix	-10.3186
▁bölümleri	-10.3187
▁anlatır	-10.3187
▁dayanan	-10.319
▁sonuçlar	-10.3197
dik	-10.3198
▁alınması	-10.3199
eceğini	-10.32
▁taraf	-10.3204
ford	-10.3207
▁Hem	-10.3209
▁olmaktadır	-10.321
▁yatırım	-10.3214
▁Play	-10.3215
▁MS	-10.3219
▁olduktan	-10.3219
▁bomba	-10.3225
▁Nüfusu	-10.3227
▁Yeşil	-10.3228
ub	-10.3232
ğu	-10.3235
▁Yugoslavya	-10.3236
▁tarihsel	-10.3238
▁sak	-10.3239
▁Çocuk	-10.324
"”	-10.3241
▁mümkündür	-10.3242
▁listesine	-10.3243
▁doğmuştur	-10.3243
ğını	-10.3246
▁zafer	-10.3251
▁etkileri	-10.3256
▁beyin	-10.3263
▁alanlarda	-10.3265
▁mesafe	-10.3265
▁Art	-10.3267
bat	-10.327
▁Sir	-10.3273
▁sözü	-10.3274
eg	-10.3277
▁baskın	-10.3279
▁Em	-10.3281
▁dedi	-10.3281
▁gövde	-10.3283
▁1941	-10.3284
▁Yusuf	-10.3286
▁lider	-10.3286
ity	-10.3286
▁Bas	-10.3287
Ro	-10.3287
▁küresel	-10.3292
▁sorun	-10.3293
▁kendilerine	-10.3294
▁kalmış	-10.3297
larındaki	-10.3298
▁Kas	-10.3299
▁Che	-10.3299
▁artan	-10.3301
▁kere	-10.3301
▁evli	-10.3303
▁yarısında	-10.3306
▁Yol	-10.3306
▁unvanı	-10.3309
▁kullandı	-10.3314
▁1928	-10.3316
▁okulu	-10.3317
mışlardır	-10.3318
▁öldürüldü	-10.3321
▁geçerli	-10.3323
aç	-10.3328
▁75	-10.3329
▁Çağı	-10.333
▁kısım	-10.3336
imi	-10.3336
▁bölümünü	-10.3337
▁doktor	-10.3338
nan	-10.3338
ince	-10.3345
▁isimler	-10.335
▁görülmüştür	-10.3351
▁kimi	-10.3353
▁Ortodoks	-10.3357
▁Ah	-10.3366
▁şarkılar	-10.3366
▁Smith	-10.3368
▁Ön	-10.3369
▁1955	-10.337
▁albümüdür	-10.3374
▁özgün	-10.3378
▁hepsi	-10.3379
cak	-10.3383
▁kişilerin	-10.3384
▁Carl	-10.3387
▁1948	-10.3391
▁gıda	-10.3393
▁süreci	-10.3394
▁dışındaki	-10.3395
▁döner	-10.3402
▁özerk	-10.3407
▁ligde	-10.3411
▁olayları	-10.3415
▁SSCB	-10.3417
▁Je	-10.3417
ilen	-10.3418
▁ayar	-10.3421
▁evlilik	-10.3422
ska	-10.3434
car	-10.3436
▁Yılın	-10.3438
▁Nu	-10.3441
▁Albert	-10.3443
ören	-10.3448
▁2000'	-10.3451
▁sürüldü	-10.3451
▁Çelebi	-10.3451
leştirme	-10.3452
▁işi	-10.3455
▁yasak	-10.3456
ydu	-10.3458
▁istediği	-10.3462
▁Mil	-10.3463
ens	-10.3465
ر	-10.3466
süz	-10.3466
▁1943	-10.3469
Fa	-10.3469
▁politika	-10.3469
▁okudu	-10.3474
dra	-10.3474
▁üyeliği	-10.3486
▁kazanarak	-10.3489
▁Saray	-10.349
▁Bilim	-10.3491
▁Kosova	-10.3492
▁(1	-10.3493
▁tasarımı	-10.3493
ılmış	-10.3494
▁55	-10.3495
▁getiren	-10.3495
▁uyar	-10.3498
▁rekabet	-10.3502
▁yalnız	-10.3503
▁am	-10.3506
▁halen	-10.3508
▁konuk	-10.3511
▁zemin	-10.3512
▁yaşamını	-10.3514
▁tasvir	-10.3514
▁dayalı	-10.3519
▁oyunun	-10.352
Ke	-10.3521
▁Ham	-10.3523
▁hakkındaki	-10.3523
▁Min	-10.3524
▁şarkıyı	-10.3525
▁kaleme	-10.3527
▁Marmara	-10.3529
▁anahtar	-10.3531
▁ülkelerin	-10.3532
▁Ebu	-10.3535
dia	-10.3535
▁Yapı	-10.3542
▁fikri	-10.3542
▁olumsuz	-10.3543
ika	-10.3547
▁Sinema	-10.3549
▁bulunmaktaydı	-10.3552
▁olayı	-10.3552
▁tartışma	-10.3554
▁katkı	-10.3556
▁Mat	-10.3556
▁kolu	-10.3559
-3	-10.356
▁Kütahya	-10.3567
▁fikir	-10.3571
▁sitesi	-10.3575
eddin	-10.3575
He	-10.3577
▁başlanmıştır	-10.3577
▁kuruluşu	-10.3577
▁48	-10.358
▁girer	-10.358
vet	-10.3582
▁elektron	-10.3583
▁)	-10.3583
▁tehlike	-10.3592
▁Edebiyat	-10.3594
▁hep	-10.3596
▁çıkma	-10.3607
▁sorunları	-10.3608
▁birden	-10.3609
log	-10.3609
▁bölgesinin	-10.3615
▁işleme	-10.3617
|	-10.3618
▁ulaşım	-10.362
▁hapis	-10.3623
▁Kat	-10.3629
Co	-10.3629
▁intihar	-10.3632
▁Rey	-10.3632
▁Tokat	-10.3635
ls	-10.3635
▁çekirdek	-10.3644
▁Latince	-10.3651
▁binası	-10.3652
▁sıkı	-10.3655
çü	-10.3658
▁amaç	-10.3658
▁arkadaşları	-10.3667
burg	-10.3667
▁kelimesi	-10.3668
▁Kars	-10.3669
▁müdahale	-10.3671
▁Uzay	-10.3677
▁kutsal	-10.368
eş	-10.3681
▁It	-10.3685
▁mekan	-10.369
bay	-10.3692
lerindeki	-10.3693
▁t	-10.3695
▁altıncı	-10.3698
▁karşılaşma	-10.3698
▁Amatör	-10.37
▁seviye	-10.3704
▁görüldü	-10.3704
▁Komünün	-10.3705
▁Komisyonu	-10.371
▁Orhan	-10.3711
▁profesör	-10.3715
▁senaryo	-10.3717
▁birim	-10.3717
layıcı	-10.3718
▁kazı	-10.372
▁Gra	-10.3721
▁Çoğu	-10.3723
▁400	-10.3724
▁miktarı	-10.3728
▁doktora	-10.3729
▁sağlamıştır	-10.3731
üs	-10.3735
▁sayılabilir	-10.3736
▁yardımıyla	-10.374
▁layık	-10.3741
kol	-10.3741
ali	-10.3742
▁Kraliyet	-10.3747
▁olanak	-10.3763
▁$	-10.3764
▁Anne	-10.3764
ola	-10.3765
▁Nur	-10.3765
▁mezar	-10.377
Ak	-10.3774
▁Hor	-10.3774
▁11.	-10.3777
▁parçaları	-10.3778
So	-10.3778
▁150	-10.3782
▁tablo	-10.3783
▁düşen	-10.3785
▁pay	-10.3787
▁katılımcı	-10.3788
tsu	-10.3789
▁Pazar	-10.379
▁tank	-10.3792
▁güreş	-10.3792
▁uygulamaları	-10.3795
▁Mag	-10.3795
landırma	-10.3797
dağ	-10.3799
▁kuşatma	-10.3799
▁filmler	-10.3801
▁bronz	-10.3803
Ni	-10.3807
▁arama	-10.3808
▁vi	-10.3815
▁Dört	-10.3816
▁kontrolü	-10.3822
▁değerli	-10.3824
▁suikast	-10.3827
▁birinin	-10.383
▁dakikada	-10.3833
▁yay	-10.3834
▁Şeyh	-10.3838
▁Pra	-10.3839
▁rolünü	-10.3839
▁başkanlık	-10.3846
▁Bilimler	-10.3847
▁metin	-10.3852
▁ortam	-10.3852
▁Sanayi	-10.3852
▁içermektedir	-10.3853
▁gönderdi	-10.3855
▁yönetiminde	-10.3858
▁satan	-10.386
▁Williams	-10.3863
dem	-10.3866
";	-10.3869
▁mahkûm	-10.3871
▁Üyeliği	-10.3875
▁sayfa	-10.3876
ız	-10.3881
▁Zelanda	-10.3883
▁kristal	-10.3889
lanabilir	-10.3889
▁65	-10.3891
▁albümünü	-10.3895
▁şehristanı	-10.3902
öz	-10.3905
▁inşaat	-10.3906
▁Sinan	-10.3907
▁tayin	-10.3913
▁vermeye	-10.3918
▁üste	-10.3923
gil	-10.3925
ú	-10.3927
▁iptal	-10.3927
▁yaklaşım	-10.3928
▁Ban	-10.3929
▁yangın	-10.393
▁ölen	-10.3934
▁şeker	-10.3935
▁devleti	-10.3938
▁Super	-10.3939
▁sal	-10.3939
▁aktör	-10.3939
▁Ç	-10.394
▁organizasyon	-10.3941
▁tabanlı	-10.3943
tığı	-10.3943
port	-10.3944
▁kitabında	-10.3944
▁konuda	-10.3945
▁Millet	-10.3945
▁gerçekleşti	-10.3946
▁Musa	-10.3949
▁Çorum	-10.3949
▁FA	-10.3957
▁başlayarak	-10.3957
Türkçe	-10.3957
ary	-10.3964
▁Trabzonspor	-10.3964
▁Ertesi	-10.3967
▁sunucu	-10.3971
▁programında	-10.3974
▁istasyonu	-10.3974
▁çalıştığı	-10.3975
▁dönme	-10.3979
yer	-10.399
▁10.	-10.399
▁Bunu	-10.4001
▁yerinde	-10.4001
▁komünist	-10.4002
▁mikro	-10.4005
Ca	-10.4007
▁toprakları	-10.4009
▁pilot	-10.4012
▁kayıtlarında	-10.4019
▁Çe	-10.4021
▁kişiden	-10.4025
sco	-10.4027
▁kütüphane	-10.4027
▁komşu	-10.4029
▁görsel	-10.4032
▁Pre	-10.4032
ph	-10.4034
▁oyunculuk	-10.4034
▁Sakarya	-10.4035
▁Koç	-10.4036
makta	-10.4038
lâ	-10.4042
▁;	-10.4045
▁Cemiyeti	-10.4048
▁blok	-10.405
▁oluşturmaktadır	-10.4056
▁dişi	-10.4057
ih	-10.4064
▁çeken	-10.4066
▁1953	-10.4066
▁Zo	-10.4069
▁Yayın	-10.4074
tiği	-10.4075
ktaydı	-10.4078
▁saygı	-10.4079
▁yükselen	-10.4081
lla	-10.4087
▁getirir	-10.4088
▁Gor	-10.4089
bol	-10.409
▁Körfezi	-10.4097
▁kısmen	-10.41
▁hisse	-10.4101
▁oyunları	-10.4103
ić	-10.4106
▁Radyo	-10.4106
▁hayal	-10.4106
illa	-10.4109
▁kuvveti	-10.4109
▁yukarı	-10.411
▁artış	-10.411
▁yapılar	-10.4115
hal	-10.4115
▁köyünde	-10.4116
▁ağı	-10.4117
▁alınarak	-10.4117
los	-10.4122
▁güncel	-10.4124
▁par	-10.4125
rü	-10.4132
kara	-10.4139
▁ilişkisi	-10.4139
▁64	-10.4139
ket	-10.414
▁performansı	-10.4141
▁War	-10.4144
▁askerler	-10.4147
▁anılan	-10.4148
▁albümde	-10.4151
▁giymektedir	-10.416
▁Hall	-10.4161
▁em	-10.4163
▁16.	-10.4164
▁makale	-10.4169
▁değişim	-10.4169
▁gezegen	-10.417
▁emir	-10.4172
▁kamp	-10.4173
▁komündür	-10.4174
ria	-10.4174
▁Kol	-10.4177
my	-10.4179
▁Afrikan	-10.418
▁güçleri	-10.4182
▁çağdaş	-10.4183
▁hayvanlar	-10.4184
As	-10.4184
▁atom	-10.4187
Lo	-10.4188
▁doğrultusunda	-10.4189
▁forvet	-10.4193
hisar	-10.4198
▁vererek	-10.4209
▁belde	-10.4209
▁olmuştu	-10.4209
▁grafik	-10.421
gon	-10.4211
▁Kom	-10.4212
▁yörünge	-10.4216
tek	-10.4218
▁maden	-10.4219
▁Tel	-10.422
▁Kongresi	-10.4222
▁klibi	-10.4228
▁den	-10.4229
▁hazırlanan	-10.4229
▁Col	-10.4232
▁deri	-10.4234
▁geçtiği	-10.4237
▁taşımaktadır	-10.4239
▁sev	-10.4239
▁Afganistan	-10.4247
▁Bil	-10.4247
ium	-10.425
▁maddeler	-10.4258
Er	-10.426
tif	-10.426
▁kaynakları	-10.4265
▁gereği	-10.4266
▁ol	-10.427
▁play	-10.427
Kategori	-10.4271
ys	-10.4274
▁ulaşan	-10.4275
▁kullanılmaya	-10.4276
▁arasındadır	-10.4277
▁Harry	-10.4279
▁Sadece	-10.4281
▁bulun	-10.4282
▁kültürü	-10.4284
ib	-10.4291
▁aşk	-10.4293
▁hayata	-10.4293
▁maçın	-10.4295
▁Max	-10.4298
▁1952	-10.43
▁patlama	-10.4301
▁baba	-10.4304
▁Jan	-10.4307
▁kıta	-10.4308
▁Askeri	-10.4309
▁denge	-10.431
amp	-10.4313
▁1939	-10.4313
mız	-10.4314
▁2003'	-10.4314
rken	-10.4314
▁ekip	-10.4317
▁tekli	-10.4317
▁olsun	-10.4318
▁süreç	-10.4319
ılarak	-10.432
▁alıp	-10.432
▁değişken	-10.4321
▁valisi	-10.4321
▁yarım	-10.4325
▁kısaca	-10.4325
▁özellik	-10.4326
án	-10.4326
▁olacağını	-10.4327
▁turizm	-10.4329
▁kurulması	-10.4337
art	-10.4338
▁mahkeme	-10.4339
_	-10.434
hl	-10.4347
▁antlaşma	-10.4356
▁kanalında	-10.4356
ig	-10.4357
▁katılmış	-10.4366
▁duruma	-10.4366
▁kazan	-10.4367
bul	-10.4369
lanmaktadır	-10.437
▁tekniği	-10.4371
▁komutasındaki	-10.4371
▁Entertainment	-10.4374
▁zorunlu	-10.4376
vel	-10.4376
▁gerçekleştirdi	-10.4378
est	-10.4379
▁Silahlı	-10.4379
▁sayede	-10.4383
▁tipik	-10.4385
cia	-10.4386
ük	-10.4387
▁Ram	-10.4389
▁Kanal	-10.439
kel	-10.4393
rek	-10.4395
▁Chris	-10.4396
▁Gür	-10.4399
▁1940	-10.4399
▁varlığını	-10.44
▁Şen	-10.4401
▁halkının	-10.4402
yü	-10.4403
▁edilerek	-10.4416
و	-10.4416
likleri	-10.442
▁1942	-10.442
▁Der	-10.4425
field	-10.4427
▁ha	-10.4429
▁39	-10.4435
▁kare	-10.4438
▁ayrılarak	-10.4443
▁puanla	-10.4443
▁tamamı	-10.4444
▁makine	-10.4445
▁Teksas	-10.4446
▁üstün	-10.4449
▁ayrılan	-10.445
▁açılmıştır	-10.4453
▁ters	-10.4455
▁meclis	-10.4456
▁temiz	-10.4456
▁Pat	-10.4458
▁akademik	-10.4463
▁Pakistan	-10.4464
▁fi	-10.4465
▁Ala	-10.4466
▁bulur	-10.447
▁yazma	-10.4471
▁gösterime	-10.4473
▁Kazakistan	-10.4474
row	-10.4475
▁ar	-10.4477
▁otel	-10.4478
▁konuş	-10.4479
ach	-10.448
▁mektup	-10.4483
▁Ker	-10.4485
▁Münih	-10.4485
ct	-10.4485
▁eleştiri	-10.4493
▁van	-10.4494
▁Buffy	-10.4496
▁araştırmalar	-10.4499
tter	-10.45
▁başlattı	-10.4508
tta	-10.4511
▁İmparatoru	-10.4513
Vi	-10.4515
▁Nokia	-10.4517
▁festival	-10.4517
▁politikası	-10.452
▁boyutlu	-10.4521
▁Yaş	-10.4521
▁otomatik	-10.4521
TV	-10.453
▁oluşturmak	-10.4531
▁Aşağı	-10.454
▁13.	-10.4541
▁biriydi	-10.4546
▁şekli	-10.4547
▁Grubun	-10.4548
abilmektedir	-10.4549
▁Un	-10.4553
▁Bölüm	-10.4554
▁vücut	-10.4554
cy	-10.4559
▁ondan	-10.456
▁sap	-10.4561
α	-10.4563
▁isimleri	-10.4565
ef	-10.4566
landığı	-10.4569
▁Shi	-10.4571
▁bölgedeki	-10.4573
▁ulaş	-10.4582
▁sanatı	-10.4582
▁okuma	-10.4586
▁iktidar	-10.4587
▁Annesi	-10.4589
▁Okyanusu	-10.4591
tha	-10.4593
▁Et	-10.4595
▁alın	-10.4596
▁şansı	-10.4596
sak	-10.46
▁firması	-10.4603
▁Sistemi	-10.4603
▁işe	-10.4605
▁şimdi	-10.4609
ves	-10.4611
▁sıradan	-10.4611
sun	-10.4613
▁Bon	-10.4615
▁imparatorluk	-10.4616
▁Nor	-10.4618
▁Arnavut	-10.4619
▁biçim	-10.4619
mil	-10.4624
▁Anna	-10.4625
▁DVD	-10.4628
▁mağara	-10.4631
rem	-10.4632
ting	-10.4634
▁Big	-10.4635
▁kurban	-10.4638
▁isteği	-10.4639
▁oranda	-10.464
▁Koleji	-10.4641
▁Club	-10.4641
▁Anti	-10.4642
1'	-10.4653
▁söylemiştir	-10.4654
▁Cal	-10.4655
▁temas	-10.4656
▁yağış	-10.4658
▁askerleri	-10.466
mm	-10.466
öl	-10.4662
acağını	-10.4666
▁tarihçi	-10.4666
▁usta	-10.4669
▁Türkler	-10.4674
▁baskısı	-10.4674
▁organize	-10.4678
▁Çi	-10.4679
▁Yaklaşık	-10.4681
▁ölümüne	-10.4683
▁müzikal	-10.4684
▁sesi	-10.4691
▁boz	-10.4692
▁olası	-10.4693
kte	-10.4695
ble	-10.4699
▁Mah	-10.4706
▁Stalin	-10.4707
▁savaşta	-10.4711
▁banka	-10.4713
▁başladılar	-10.4718
▁Liga	-10.4721
▁bölgesel	-10.4725
▁tel	-10.4726
▁Mas	-10.4733
ي	-10.4733
▁aylık	-10.4736
Da	-10.4738
▁Not	-10.4741
▁tanıştı	-10.4742
▁bölgelerinde	-10.4743
▁yapımcısı	-10.4744
kla	-10.4746
▁Tokyo	-10.4749
▁amatör	-10.475
▁arttı	-10.4752
▁bulunma	-10.4756
▁akıl	-10.4761
▁kalıntıları	-10.4761
▁basınç	-10.4762
▁Şarkının	-10.4764
yol	-10.4764
▁karşıya	-10.4768
▁ertesi	-10.4769
▁özellikler	-10.477
▁2002'	-10.4775
▁iyon	-10.4775
sky	-10.4777
▁kıl	-10.4777
▁üstlenmiştir	-10.478
▁savaşa	-10.478
▁dosya	-10.4781
▁iz	-10.4784
▁Kanunu	-10.4787
▁1918	-10.479
mb	-10.479
şı	-10.4794
▁King	-10.4796
▁Göz	-10.4796
▁alana	-10.4802
ora	-10.4805
▁çalışmaktadır	-10.4805
▁41	-10.4805
acaktır	-10.4806
▁düzen	-10.4807
▁1947	-10.4809
▁atmıştır	-10.4811
▁çeviri	-10.4811
▁depo	-10.4812
▁tanınır	-10.4813
ight	-10.4815
▁bilimi	-10.4823
▁Prens	-10.4824
Billboard	-10.4825
▁sıfır	-10.4827
aş	-10.4828
lendirme	-10.4835
mit	-10.4836
▁konum	-10.4836
▁Okul	-10.4838
Konstantinopolis	-10.4839
▁sınırı	-10.4845
▁olmasından	-10.4847
gal	-10.485
▁vermiş	-10.4852
▁Day	-10.4854
lia	-10.4858
▁1930	-10.4858
ılması	-10.487
▁kentin	-10.487
▁Yerel	-10.4883
▁Euro	-10.4884
▁süt	-10.4884
Kar	-10.4887
▁etkileşim	-10.489
▁inceleme	-10.489
ise	-10.4894
mesine	-10.4897
▁1-0	-10.4899
▁Topluluğu	-10.4902
jan	-10.4903
▁girişimi	-10.4904
▁cezası	-10.4908
▁ekonomisi	-10.4908
▁cephe	-10.491
▁köyde	-10.491
▁girdiği	-10.4911
▁sonraları	-10.4914
▁alfabesi	-10.4921
!"	-10.4922
▁şehrinin	-10.4923
▁biçiminde	-10.4924
yal	-10.4925
lığına	-10.4929
▁bağış	-10.4929
▁Dizi	-10.493
▁Nobel	-10.4932
▁1949	-10.4938
▁planı	-10.494
▁Emir	-10.494
▁tarihine	-10.4941
pro	-10.4941
▁Allah	-10.4946
▁ün	-10.4946
▁krizi	-10.4946
▁terim	-10.4949
▁Finali	-10.4949
mas	-10.4953
Her	-10.4958
▁maçları	-10.4961
▁Halil	-10.4963
▁deprem	-10.4965
▁sıcaklığı	-10.4966
▁aşık	-10.4972
▁43	-10.4977
▁albümünde	-10.4977
▁1000	-10.4981
▁birbirinden	-10.4981
▁Erzincan	-10.4982
▁),	-10.4982
sto	-10.4987
tch	-10.4988
▁kahraman	-10.4991
▁Kutsal	-10.4993
▁Nar	-10.4996
sis	-10.4997
▁kahverengi	-10.4998
▁tatlı	-10.5
bert	-10.5
▁bol	-10.5002
▁Yıldırım	-10.5003
▁değişiklikler	-10.5003
▁1951	-10.5005
▁Kır	-10.5011
▁sosyalist	-10.5013
▁kapsayan	-10.5013
▁52	-10.5013
▁coğrafi	-10.502
▁Sim	-10.5023
▁adamları	-10.5025
=12	-10.5027
▁1999'	-10.5029
▁seçme	-10.5033
▁Kupa	-10.5035
▁avcı	-10.5036
▁Premier	-10.5037
Man	-10.5044
▁kullanıldığı	-10.5056
▁anayasa	-10.5058
▁Com	-10.5059
ix	-10.5063
▁trans	-10.5063
▁oyuna	-10.5063
▁gazetesi	-10.5067
▁Bakü	-10.5069
▁Erdoğan	-10.507
con	-10.5072
▁Web	-10.5073
paşa	-10.5073
▁Yarışma	-10.5074
og	-10.5075
▁hizmete	-10.5075
▁düzeyde	-10.5076
▁Cem	-10.5078
ebilen	-10.508
and	-10.5083
▁çatışmalar	-10.5085
▁Sp	-10.5087
▁Masa	-10.5087
kle	-10.5087
▁hizmeti	-10.5088
▁karbon	-10.5088
▁ırk	-10.5089
▁Sanatlar	-10.5091
▁SS	-10.5092
▁gücünü	-10.5095
▁yaşama	-10.5096
▁bayrak	-10.5097
▁Vo	-10.5099
▁Milletvekilliği	-10.5104
▁ağırlıklı	-10.511
▁hücum	-10.5111
▁kökeni	-10.5112
▁süreli	-10.5113
▁servis	-10.5116
▁gerilim	-10.512
▁Air	-10.5122
▁yaşındaki	-10.5125
▁familyasından	-10.5125
▁fa	-10.5126
▁Öte	-10.5128
▁başlangıçta	-10.5129
▁sürü	-10.5129
ite	-10.5134
▁kum	-10.5134
▁potansiyel	-10.5139
▁per	-10.5139
▁kadınların	-10.514
▁gözü	-10.5142
▁olmayı	-10.5143
rah	-10.5144
▁eşcinsel	-10.5146
к	-10.5148
▁Tepe	-10.5152
▁yüksekliği	-10.5154
▁frekans	-10.5157
▁44	-10.516
▁ağırlık	-10.5163
▁Altay	-10.5164
▁Say	-10.5165
▁Pasifik	-10.5171
▁özgür	-10.5172
▁bulmak	-10.5172
▁Federal	-10.5172
▁görülebilir	-10.5176
yama	-10.5177
▁onunla	-10.5183
▁Örgütü	-10.5183
▁İnternet	-10.5184
▁Din	-10.5185
▁Pri	-10.52
▁Vadisi	-10.5201
▁47	-10.5204
▁anlatan	-10.5205
▁Sho	-10.5206
▁sundu	-10.5208
way	-10.5208
▁Mak	-10.5208
▁ikiye	-10.5213
▁Company	-10.5217
▁Mezarlığı	-10.5217
hir	-10.5218
▁albümünün	-10.5218
ucu	-10.5225
▁Hırvatistan	-10.5228
▁ilham	-10.5232
▁çeyrek	-10.5235
iği	-10.5235
▁•	-10.5236
▁kaleci	-10.5237
▁po	-10.5238
▁İskoçya	-10.5243
▁besin	-10.5246
cho	-10.5252
age	-10.5252
▁sistemin	-10.5257
▁şirketin	-10.5257
▁1923	-10.5258
▁finalinde	-10.526
▁grupları	-10.5263
lenebilir	-10.5264
▁resmen	-10.5266
Pe	-10.5267
▁yarar	-10.5269
3'	-10.5275
▁yapılacak	-10.5279
▁2-1	-10.5281
▁rakibi	-10.5283
▁Brown	-10.5285
dıkları	-10.5288
▁Başka	-10.5289
-15	-10.5289
▁Vol	-10.5291
▁kupa	-10.5292
▁çalış	-10.5294
▁tarihindeki	-10.5295
▁ilçesinin	-10.5298
▁Yarımadası	-10.5302
mayı	-10.5304
▁serisinin	-10.5305
▁kemer	-10.5305
mel	-10.5307
tim	-10.5307
▁Özerk	-10.531
▁Şehirdeki	-10.5313
▁karanlık	-10.5313
▁yöre	-10.5314
▁ata	-10.5316
▁cinsiyet	-10.5321
Büyük	-10.5323
ile	-10.5324
▁harekete	-10.5325
▁töreni	-10.5326
▁heykel	-10.5327
▁Yıl	-10.5331
▁EP	-10.5331
▁düşer	-10.5334
▁hizmetleri	-10.5335
▁kazanmış	-10.5336
▁Gel	-10.5336
▁Şili	-10.5338
▁muhalefet	-10.5338
tos	-10.5339
▁uygulamalar	-10.5343
▁Green	-10.5343
▁meydan	-10.5344
des	-10.5346
▁Ken	-10.5346
=8	-10.5347
▁değiştirildi	-10.5351
▁canlandırdığı	-10.5351
mut	-10.5351
▁seçilmiş	-10.5352
▁Çeşitli	-10.5353
amaz	-10.5353
▁Şi	-10.5353
ilmiş	-10.5355
▁ter	-10.5359
Farsça	-10.5359
▁işleri	-10.5361
▁süreçte	-10.5361
▁Sil	-10.5365
▁tanıma	-10.5369
fu	-10.5371
▁ödeme	-10.5373
▁gri	-10.5376
▁pe	-10.5379
▁Kir	-10.538
ebilecek	-10.5382
=230	-10.5384
-10	-10.5385
mesini	-10.5388
lamış	-10.539
▁anlaşması	-10.539
▁binlerce	-10.5394
▁Kra	-10.5395
▁Hastanesi	-10.5406
▁gösterilen	-10.5406
▁belgesel	-10.541
▁gelerek	-10.5412
▁Florida	-10.5414
▁Moğol	-10.5416
▁kurulduğu	-10.5416
▁1936	-10.5423
="230	-10.5423
▁Eli	-10.5425
▁içeriği	-10.543
▁ikna	-10.5434
▁tarif	-10.5435
=236	-10.5435
▁buzul	-10.5437
▁kariyeri	-10.5437
▁görünür	-10.5439
ero	-10.544
▁Önce	-10.5443
▁Fen	-10.5443
▁kadrosunda	-10.5445
-6	-10.5446
▁yön	-10.5449
5'	-10.5453
▁pozitif	-10.5454
▁kuantum	-10.5465
▁Tarım	-10.5466
▁tabaka	-10.5472
▁hata	-10.5472
▁yönetici	-10.5473
▁stadyum	-10.5475
▁enerjisi	-10.5477
tic	-10.5477
▁eyaletine	-10.5477
▁17.	-10.5478
▁1924	-10.5479
▁Voleybol	-10.5479
Fi	-10.548
="236	-10.548
gı	-10.5483
=237	-10.5484
▁uzunluğunda	-10.5485
▁Alaska	-10.5487
elli	-10.549
0,000	-10.5491
nos	-10.5494
▁Santa	-10.5496
▁46	-10.5499
▁soru	-10.5503
▁has	-10.5504
Or	-10.5506
era	-10.5509
▁Scott	-10.551
şan	-10.551
▁şiddetli	-10.5511
т	-10.5514
▁alınır	-10.5519
▁birini	-10.552
▁yerleşme	-10.5522
ita	-10.5526
▁sürgün	-10.5528
▁yak	-10.5529
▁ilerleyen	-10.5531
▁(17	-10.5532
ettin	-10.5532
▁Port	-10.5533
="237	-10.5533
=238	-10.5534
▁risk	-10.5536
▁değişen	-10.5544
▁cinayet	-10.5545
▁not	-10.5546
▁gerekçesiyle	-10.5546
▁v	-10.5546
▁belirtir	-10.5551
muz	-10.5553
▁ilişkili	-10.5553
▁Bağ	-10.5554
▁Kafkasya	-10.5558
▁Hü	-10.5558
▁çatışma	-10.5559
▁girmiş	-10.556
▁buraya	-10.5561
Ge	-10.5563
▁maddesi	-10.5565
▁olacağı	-10.5566
▁Jones	-10.5567
müştür	-10.5569
▁kimya	-10.5569
▁dir	-10.557
="238	-10.557
▁oldular	-10.5573
▁karşıtı	-10.5578
▁Fas	-10.558
▁Yozgat	-10.5582
▁başbakan	-10.5592
▁She	-10.5595
▁olmasıdır	-10.5595
fo	-10.5596
р	-10.5598
rd	-10.56
▁bırakıldı	-10.5606
ell	-10.5607
▁Sanatçı	-10.5609
▁gönderme	-10.5609
▁Ulu	-10.561
▁düzeni	-10.5611
▁rakip	-10.5615
▁gerçekleştir	-10.5615
▁Geç	-10.5617
▁anıt	-10.5619
▁net	-10.562
▁yanıt	-10.5622
▁ismiyle	-10.5622
▁çekilmiştir	-10.5622
▁kullanmak	-10.5625
ica	-10.5629
▁deneme	-10.5629
▁konuşan	-10.5632
▁yaşar	-10.5633
▁değin	-10.5634
üt	-10.5636
name	-10.5637
▁2001'	-10.564
▁düzenlendi	-10.564
▁Arabistan	-10.5641
kes	-10.5642
▁geldiğinde	-10.5643
▁1938	-10.5643
▁kay	-10.5646
▁Lübnan	-10.565
▁Teknoloji	-10.5652
▁bağımsızlığını	-10.5656
larıdır	-10.5657
▁Has	-10.5659
▁başvuru	-10.566
_2	-10.5663
▁dayanır	-10.5663
▁büyüme	-10.5671
▁kanser	-10.5671
sam	-10.5672
▁Anayasa	-10.5673
-17	-10.5673
-16	-10.5674
▁çıkması	-10.5674
▁form	-10.5675
▁filminin	-10.5676
▁alınmış	-10.5677
▁Gemi	-10.5677
gue	-10.5681
▁le	-10.5682
ი	-10.5682
▁İbn	-10.5683
000	-10.5684
▁Takımı	-10.5688
▁Cezayir	-10.569
▁çıkarak	-10.5691
af	-10.5693
set	-10.5693
-4	-10.5696
▁0.1%	-10.5697
▁senarist	-10.5699
=232	-10.5701
▁sonlarına	-10.5703
▁fonksiyonu	-10.5703
▁sağlam	-10.5706
▁kule	-10.5708
laması	-10.5709
▁yaparken	-10.571
▁kaçır	-10.5714
ous	-10.5714
▁Yazı	-10.5716
▁hikâyesi	-10.5719
-20	-10.572
▁keşif	-10.5723
▁açıkça	-10.5723
▁getirmiştir	-10.5726
▁teknolojisi	-10.5736
▁sahneye	-10.5736
▁nüfuslu	-10.5737
▁Rusça	-10.5738
▁dizide	-10.5739
▁halklardan	-10.5743
▁1998'	-10.5747
▁ilaç	-10.5747
▁Alt	-10.5749
▁54	-10.5751
gur	-10.5753
No	-10.5754
="232	-10.5756
▁karşılıklı	-10.5758
▁geçiren	-10.5759
▁çocuklar	-10.5761
▁Mahmud	-10.5761
▁ye	-10.5762
▁Çift	-10.5763
▁Chicago	-10.5764
of	-10.5765
▁Küba	-10.5765
▁yaşta	-10.5768
▁ulaşmıştır	-10.5768
▁Dış	-10.577
iki	-10.577
▁yazıları	-10.5773
▁yayımlanmıştır	-10.5773
▁ufak	-10.5776
▁Pas	-10.5776
▁bölgeleri	-10.5783
▁Mars	-10.5784
Ja	-10.5785
▁örnekleri	-10.5787
leyerek	-10.5787
▁OS	-10.5791
▁platform	-10.5792
ios	-10.5793
▁gönüllü	-10.5794
▁so	-10.5794
▁üstlendiği	-10.5795
=264	-10.5798
cer	-10.5801
▁Yukarı	-10.5802
sha	-10.5804
▁değerleri	-10.5805
Ko	-10.5807
▁sendromu	-10.5807
▁şarkısıyla	-10.5809
▁kimlik	-10.581
▁1935	-10.5811
▁1933	-10.5815
▁dahi	-10.5817
dikleri	-10.5818
▁National	-10.5824
▁takımları	-10.5824
▁pa	-10.5825
▁eylem	-10.5825
▁57	-10.5826
▁ülkeleri	-10.5828
▁International	-10.583
▁günümüz	-10.5835
▁motoru	-10.5835
▁animasyon	-10.5835
▁getirdiği	-10.5836
Ho	-10.5837
▁Ceza	-10.584
▁(16	-10.5841
▁getirilmiştir	-10.5842
▁takımıyla	-10.5846
="264	-10.5847
SS	-10.5848
▁geleneği	-10.5848
▁dağı	-10.585
▁Vietnam	-10.5851
▁Alexander	-10.5854
▁aşama	-10.5856
▁1992'	-10.5857
dos	-10.5857
▁eğlence	-10.5858
▁bireysel	-10.586
▁olursa	-10.586
▁zamana	-10.586
▁Mary	-10.5861
▁hali	-10.5862
▁Dam	-10.5863
luğa	-10.5868
▁diş	-10.5868
ona	-10.5869
ы	-10.5869
▁ortalarında	-10.587
▁1919	-10.5871
lendirilmiştir	-10.5873
ón	-10.5873
▁sektör	-10.5873
▁işgali	-10.5874
del	-10.5876
л	-10.5876
▁felsefesi	-10.5877
▁hit	-10.588
▁hidrojen	-10.5881
▁kalabalık	-10.5888
▁yedinci	-10.5889
▁yenilgi	-10.5892
▁ürünler	-10.5892
▁Dor	-10.5896
▁toplu	-10.5898
▁1920'	-10.5899
▁daire	-10.5902
▁toplumun	-10.5903
с	-10.5904
rip	-10.5905
▁macera	-10.5908
▁yapması	-10.5909
▁şiiri	-10.5909
▁kaybetmiştir	-10.5913
▁Devletler	-10.5917
▁matematik	-10.592
▁uçağı	-10.5922
▁Slav	-10.5922
fet	-10.5923
▁belirtmiştir	-10.5928
▁çiz	-10.5929
▁etmeyi	-10.5933
▁arasından	-10.5934
▁partinin	-10.5935
▁İz	-10.5937
▁Gri	-10.5939
▁gayet	-10.5942
ë	-10.5942
▁Mardin	-10.5944
▁başlangıç	-10.5945
▁Atletizm	-10.5945
▁kimse	-10.5957
bank	-10.596
▁ser	-10.5962
▁Mari	-10.5968
▁anlam	-10.5971
▁şeyi	-10.5971
▁zırhlı	-10.5972
▁Denizli	-10.5973
▁İskender	-10.5973
Ben	-10.5975
ER	-10.5977
▁Orman	-10.598
▁yöntemleri	-10.5982
▁Mur	-10.5983
▁gök	-10.5983
▁Hoca	-10.5983
▁Pen	-10.5985
ella	-10.5986
▁1930'	-10.5988
ms	-10.5988
▁Çar	-10.5992
▁bey	-10.5992
▁Au	-10.5994
▁davranış	-10.5995
▁Royal	-10.5996
▁Kap	-10.5998
yn	-10.6002
▁sorunlar	-10.6003
▁dövüş	-10.6003
▁kişiye	-10.6003
emi	-10.6003
▁ağırlığı	-10.601
▁kitapları	-10.6013
▁meslek	-10.6018
▁kalıcı	-10.6019
▁yağmur	-10.6024
▁NATO	-10.6026
▁orkestra	-10.6032
-5	-10.6033
syon	-10.6035
▁yönde	-10.6036
▁güreşçi	-10.6037
▁geçmişi	-10.6038
▁Tro	-10.6039
▁geliştirilmiş	-10.604
▁Of	-10.6042
form	-10.6042
▁12.	-10.6052
ა	-10.6053
▁insanı	-10.6053
laştırma	-10.6054
▁efsane	-10.6055
▁Lise	-10.6055
lediği	-10.6058
▁düzenleme	-10.6059
▁cumhuriyet	-10.606
▁evi	-10.6061
▁verilmesi	-10.6063
▁topraklarına	-10.6065
▁Çevre	-10.6067
▁başrol	-10.6068
▁Malatya	-10.6068
▁ölçü	-10.6072
mişlerdir	-10.6077
▁BBC	-10.6079
▁belirlenmiştir	-10.6079
▁reaksiyon	-10.6081
▁geliştirilmesi	-10.6084
▁geriye	-10.6084
▁Serbest	-10.6085
Mu	-10.6086
▁Aşk	-10.6086
yet	-10.6088
tum	-10.6089
▁suyun	-10.6091
▁filozof	-10.6092
▁parçasıdır	-10.6092
▁ücretsiz	-10.6093
▁vermesi	-10.6094
▁Elazığ	-10.6095
▁Bağdat	-10.6096
▁faaliyetleri	-10.6096
▁uzman	-10.6096
▁yüzyıldan	-10.6098
▁Ailesi	-10.6102
oy	-10.6103
▁bildirdi	-10.6104
▁alkol	-10.6105
dim	-10.6107
▁Grammy	-10.6111
▁piyade	-10.6111
▁görevli	-10.6111
▁Ağ	-10.6117
▁gelmesi	-10.6117
kas	-10.6119
▁birbirlerine	-10.612
▁donanım	-10.612
▁köpek	-10.6121
ning	-10.6122
▁sıralama	-10.6126
▁Suudi	-10.6127
wood	-10.6128
▁salonu	-10.6129
ich	-10.6131
▁tanımı	-10.6134
▁May	-10.6137
▁Gen	-10.6139
gre	-10.6143
fan	-10.6144
▁ayrılması	-10.6145
▁suçlu	-10.6146
Po	-10.6146
ا	-10.6151
▁denk	-10.6152
▁AB	-10.6153
alan	-10.6153
▁1997'	-10.6154
nor	-10.6156
▁si	-10.6157
▁okyanus	-10.6158
▁baz	-10.6162
▁öde	-10.6169
▁kurtar	-10.6171
▁Yazar	-10.6173
▁topu	-10.6177
▁nesne	-10.6177
lov	-10.6177
▁1921	-10.6178
د	-10.6181
▁aktar	-10.6185
▁terfi	-10.6186
▁CHP	-10.6186
▁Bilgi	-10.6191
▁1927	-10.6192
luğunu	-10.6193
▁genetik	-10.6198
▁modelleri	-10.6204
▁Amasya	-10.6205
▁Günü	-10.6208
▁gezi	-10.6209
▁Alex	-10.6209
▁teklifi	-10.6209
▁VI	-10.6211
▁olmaması	-10.6213
▁etkinliği	-10.6216
▁Kalkınma	-10.6216
▁va	-10.6217
▁1922	-10.6217
mos	-10.6217
▁bağımsızlık	-10.622
▁aş	-10.6224
ses	-10.6226
▁site	-10.6228
MA	-10.6228
▁arkasında	-10.6232
▁vali	-10.6234
▁eleştiriler	-10.6237
▁Kum	-10.6237
▁Miss	-10.6239
▁bulunuyordu	-10.6239
▁1934	-10.6243
▁yönetilen	-10.6251
▁teşkil	-10.6251
▁biçimi	-10.6252
▁ba	-10.6252
lerce	-10.6253
▁Bölgesel	-10.6253
▁Gazete	-10.6254
▁Haber	-10.6255
▁bellek	-10.6256
gra	-10.6256
▁defans	-10.6257
▁Dağ	-10.626
▁yerleri	-10.6261
▁Ülkenin	-10.6261
▁Lord	-10.6262
▁dışına	-10.6263
▁tarihten	-10.6275
▁düşür	-10.6277
▁roket	-10.6278
▁Kamu	-10.6281
▁görüşü	-10.6283
▁listelerinde	-10.6283
▁ihtiyacı	-10.6285
▁Pir	-10.6287
▁aşkın	-10.629
▁Dal	-10.6291
▁savaşçı	-10.6294
▁Simon	-10.6297
▁Bill	-10.6297
daş	-10.6297
▁bilgileri	-10.6306
▁Ekonomi	-10.6308
abileceği	-10.6311
▁kafa	-10.6313
indeki	-10.6314
ala	-10.6314
▁Gece	-10.6318
▁hâlen	-10.6318
▁Seferi	-10.6319
▁sinyal	-10.6321
▁Timur	-10.6322
▁Oscar	-10.6324
▁gelip	-10.6328
▁girişim	-10.6329
rim	-10.633
▁duyu	-10.6331
mes	-10.6332
▁kadro	-10.6332
▁yapılma	-10.6333
▁sürüm	-10.6334
ân	-10.6334
ray	-10.6334
г	-10.6335
▁İçişleri	-10.6335
▁hedefi	-10.6335
sion	-10.6338
▁ahşap	-10.6343
▁arkadaş	-10.6346
▁ülkeye	-10.6352
ato	-10.6354
▁birlik	-10.636
▁paket	-10.6361
▁tuz	-10.6363
▁verimli	-10.6366
▁Tatar	-10.6368
);	-10.6368
▁Sev	-10.6373
▁görevinde	-10.6374
yr	-10.6376
▁Ch	-10.638
▁Tre	-10.638
kü	-10.6381
▁sonsuz	-10.6381
▁1925	-10.6382
▁Ash	-10.6382
eh	-10.6382
▁Bak	-10.6383
▁önemlidir	-10.6384
AR	-10.6385
▁Stra	-10.6386
▁dayanmaktadır	-10.6388
▁Ste	-10.6389
▁120	-10.639
▁gökada	-10.639
▁Yardımcısı	-10.6391
▁oluşmuştur	-10.6392
▁Caddesi	-10.6397
▁Rio	-10.6397
ū	-10.6398
▁bulunmuş	-10.6401
▁Sicilya	-10.6403
▁voleybol	-10.6406
▁çıkarılan	-10.6408
▁Friedrich	-10.6408
▁uzaklığı	-10.6409
▁gelişmeler	-10.6411
▁icra	-10.6415
▁biyo	-10.6416
▁kadrosuna	-10.6417
▁yarışmada	-10.642
hen	-10.642
lma	-10.642
sor	-10.6424
▁emri	-10.6424
=235	-10.6425
uğu	-10.6426
▁protesto	-10.6429
▁Yahudiler	-10.6431
▁topluluk	-10.6437
▁bölgesinden	-10.6437
▁verilerine	-10.644
▁yıldızı	-10.6441
▁çaba	-10.6443
▁Mad	-10.6444
="162	-10.6446
▁Şahin	-10.6449
▁sunuldu	-10.6449
="229	-10.645
cus	-10.645
▁posta	-10.6451
▁türler	-10.6451
▁Aile	-10.6454
▁denen	-10.6458
cal	-10.6459
▁oran	-10.6459
="235	-10.646
tas	-10.646
▁z	-10.646
raf	-10.6463
▁ettikleri	-10.6464
▁Klasik	-10.6468
▁yakınında	-10.6469
ction	-10.6473
▁dizisinin	-10.6474
▁49	-10.6475
▁Gö	-10.6477
kale	-10.648
▁çe	-10.6482
ی	-10.6483
▁çekim	-10.6483
▁üstüne	-10.6487
▁Will	-10.6488
▁56	-10.649
▁ayrılmış	-10.6491
▁hediye	-10.6491
▁hareketleri	-10.6492
üp	-10.6495
▁yolları	-10.6497
▁kuramı	-10.6499
▁sistemine	-10.6504
▁kapısı	-10.6505
▁1908	-10.6505
▁rolüyle	-10.6506
yorum	-10.6509
OS	-10.6509
▁çerçevesinde	-10.6521
▁buhar	-10.6521
▁gelme	-10.6521
▁maddi	-10.6523
▁oğulları	-10.6524
▁Karadağ	-10.6527
▁neticesinde	-10.6528
gerçekleştirildi	-10.6528
şar	-10.6534
hin	-10.6535
▁meclisi	-10.6536
▁Vali	-10.6536
▁mekanik	-10.6537
▁Temel	-10.6538
▁Seçim	-10.654
"</	-10.654
▁uyum	-10.6541
ilir	-10.6541
▁1991'	-10.6541
▁alanlarında	-10.6542
▁rüzgâr	-10.6543
▁bal	-10.6544
▁toplanan	-10.6546
tom	-10.6547
▁general	-10.6549
▁Boz	-10.655
▁Turu	-10.6551
▁Yolu	-10.6554
cher	-10.6558
Ri	-10.6559
▁Farsça	-10.6561
duğu	-10.6562
▁cins	-10.6563
▁siyasal	-10.6564
▁Hatta	-10.6567
▁buradan	-10.6567
▁ifadesi	-10.6569
örneğin	-10.6569
▁saç	-10.6571
à	-10.6572
▁set	-10.6572
▁atarak	-10.6577
▁süvari	-10.658
▁uygulanan	-10.6584
▁mensup	-10.6586
lt	-10.6586
▁girerek	-10.6587
▁ilerleme	-10.6587
▁Birlik	-10.6588
AN	-10.659
▁Seri	-10.6591
▁piyano	-10.6592
▁Hükûmeti	-10.6594
▁kümesi	-10.6595
▁organı	-10.6595
▁Bolu	-10.6596
lıyor	-10.6598
well	-10.6602
▁Gaziantep	-10.6604
▁tasarlanmış	-10.6605
▁örneği	-10.661
▁Yani	-10.6613
▁etkiler	-10.6617
lenmektedir	-10.6617
▁53	-10.6621
▁Bin	-10.6622
▁beste	-10.6625
▁formasıyla	-10.6626
▁parçalar	-10.6627
▁es	-10.6629
▁1937	-10.6633
Dünya	-10.6635
▁yüzölçümüne	-10.6636
▁açar	-10.664
▁oynama	-10.6641
▁tabi	-10.6645
ello	-10.6646
▁Mus	-10.6646
▁Aslan	-10.6647
▁yıldır	-10.6649
▁futbolu	-10.6649
▁Mahmut	-10.6649
▁işlemleri	-10.6651
▁kemik	-10.6656
▁Ag	-10.6659
▁Karaman	-10.6659
▁dikkate	-10.6659
ildi	-10.666
▁Gal	-10.6661
hem	-10.6663
mber	-10.6664
è	-10.6668
▁sorunu	-10.6671
uç	-10.6671
▁51	-10.6674
▁parlamento	-10.6674
▁1996'	-10.6674
▁iklimi	-10.6676
▁anılır	-10.6676
▁bi	-10.6679
▁Zu	-10.668
▁kavga	-10.6683
zon	-10.6685
ât	-10.6687
▁Night	-10.6687
▁kaba	-10.669
▁operasyon	-10.6694
▁Halep	-10.6705
▁u	-10.6708
▁Brezilyalı	-10.6709
▁markası	-10.6711
▁kaybı	-10.6711
▁görmüş	-10.6711
▁yöneticisi	-10.6715
▁sütun	-10.6715
Jo	-10.6716
▁aç	-10.6716
▁Çalışma	-10.6716
▁fiyat	-10.6716
▁Hat	-10.6718
Cumhurbaşkanlığı	-10.6719
▁müşteri	-10.6719
▁endişe	-10.6723
▁Cho	-10.6725
▁görevlisi	-10.6727
▁Rize	-10.6731
abad	-10.6731
▁Hy	-10.6732
▁kurma	-10.6733
ES	-10.6735
▁yayım	-10.6736
▁direktörü	-10.6736
▁direniş	-10.6738
▁farkı	-10.6738
▁gerekmektedir	-10.6738
▁bunlardan	-10.6739
▁olabileceği	-10.674
▁Stone	-10.674
▁sorgu	-10.6741
▁İmparatorluk	-10.6742
▁düzenledi	-10.6744
=234	-10.6746
▁gelişim	-10.6747
▁kapsamlı	-10.6748
▁1913	-10.6749
eği	-10.675
▁1926	-10.675
▁değişimi	-10.6752
▁devamı	-10.6753
pon	-10.6754
▁Muğla	-10.6756
▁Rick	-10.6757
▁katman	-10.6757
▁golle	-10.6759
▁72	-10.6763
4'	-10.6765
▁UNESCO	-10.6769
vis	-10.6774
vat	-10.6775
▁Tren	-10.6777
▁Kuş	-10.6779
▁han	-10.678
▁Koca	-10.6782
ami	-10.6785
▁Yahudilerin	-10.6785
▁sırt	-10.6792
▁öğrenimini	-10.6792
▁erişim	-10.6796
▁bağlantısı	-10.6796
▁tamamlayan	-10.6798
="234	-10.6801
abilmek	-10.6802
▁harfi	-10.6802
▁kaç	-10.6806
ish	-10.6811
="206	-10.6816
▁Th	-10.6817
ette	-10.6817
bus	-10.682
▁deney	-10.682
▁kullanmıştır	-10.6821
sko	-10.6823
▁mah	-10.6825
▁açıklamıştır	-10.6827
Rusça	-10.6828
▁sürmüştür	-10.6828
▁Birkaç	-10.6829
▁ittifak	-10.6829
▁şüphe	-10.683
▁sürdürmektedir	-10.683
▁subay	-10.6831
▁saniye	-10.6831
▁gelişen	-10.6831
▁araçlar	-10.6834
▁cumhurbaşkanı	-10.6835
ag	-10.6836
▁Karaca	-10.6838
▁doku	-10.6843
▁cihaz	-10.6845
lly	-10.6849
▁Çayı	-10.685
▁yendi	-10.685
▁Cami	-10.6851
▁Dur	-10.6852
▁olmaları	-10.6856
ence	-10.6866
▁Des	-10.687
▁tesis	-10.687
şehir	-10.6872
▁değiştirme	-10.6873
▁başkanlığını	-10.6873
▁Donanması	-10.6877
▁korunması	-10.688
▁direkt	-10.6881
▁sisteminde	-10.6881
▁Koruma	-10.6884
▁geliştirdi	-10.6888
▁olduklarını	-10.6891
AS	-10.6892
▁eyaletinin	-10.6892
▁Estonya	-10.6895
▁topluluğu	-10.6895
▁Ü	-10.6896
▁olayların	-10.6898
ari	-10.6899
▁geçir	-10.6899
▁değişir	-10.6899
▁oynamaya	-10.69
abı	-10.6901
▁şartları	-10.6902
=261	-10.6903
ğini	-10.6906
sil	-10.6908
▁atlet	-10.6912
▁kesim	-10.6919
▁tutuklandı	-10.6921
▁Cer	-10.6925
▁fon	-10.6927
▁Mimar	-10.6927
▁İzlanda	-10.6927
xi	-10.6928
▁gerektiği	-10.6928
▁eserinde	-10.6928
▁seçimlerde	-10.693
▁katılım	-10.6936
▁diğeri	-10.6936
▁avukat	-10.6937
▁fayda	-10.6938
▁alacak	-10.6938
nt	-10.6941
▁Shin	-10.6941
nar	-10.6943
▁günde	-10.6943
▁varsa	-10.6945
▁ci	-10.6946
nus	-10.6948
▁Holding	-10.6949
Avrupa	-10.6949
kli	-10.6951
▁Jersey	-10.6953
▁zorla	-10.6954
▁Savaşları	-10.6956
▁toplantı	-10.696
▁politikacı	-10.6961
▁açısı	-10.6964
avi	-10.6967
▁etmişlerdir	-10.6967
="221	-10.6969
="261	-10.6971
▁görmüştür	-10.6971
▁Kilise	-10.6975
▁girişi	-10.6975
▁Sü	-10.6977
istik	-10.6978
▁Hel	-10.6981
▁14.	-10.6981
▁çağ	-10.6982
▁oksijen	-10.6982
▁yüzyıla	-10.6984
▁numarası	-10.6984
▁derecesi	-10.6984
ilmesi	-10.6989
▁partisi	-10.6989
▁Adı	-10.699
▁elektro	-10.6991
yıp	-10.6992
▁giymiştir	-10.6993
kent	-10.6998
▁müdürü	-10.7
▁Konservatuvarı	-10.7003
▁bildiri	-10.7005
▁kariyerinin	-10.7009
▁sayıları	-10.701
▁bakım	-10.7012
▁mo	-10.7014
▁kesiminde	-10.7016
▁reddetti	-10.7017
▁gazetesinde	-10.7017
▁üyelerinin	-10.7018
▁Hazar	-10.702
ds	-10.7024
▁karışık	-10.7025
ımı	-10.7026
▁döneminin	-10.7033
▁Siyasal	-10.7033
▁Saat	-10.7035
▁Selanik	-10.7038
▁sokak	-10.7038
lus	-10.7039
▁Life	-10.7041
▁seslendirilen	-10.7042
▁çık	-10.7042
▁değerlendiril	-10.7044
ünde	-10.7044
▁saldırıya	-10.7046
▁yarısı	-10.7047
▁Bob	-10.7048
▁Hareket	-10.7048
▁etkinlik	-10.7053
▁sürecinde	-10.7055
▁işler	-10.7055
▁bölgeyi	-10.7061
▁Gerçek	-10.7061
▁eskiden	-10.7062
albüm	-10.7065
▁boyut	-10.7068
▁kolayca	-10.7069
▁ideal	-10.7072
▁ediyordu	-10.7073
▁mil	-10.7073
▁açılış	-10.7074
▁Ses	-10.7075
▁fil	-10.7078
▁hapishane	-10.708
▁anlamında	-10.7081
▁tarz	-10.7084
▁noktada	-10.7085
▁Küre	-10.7088
▁he	-10.7091
▁verilmektedir	-10.7092
San	-10.7095
▁alanlar	-10.7095
▁yakınlarındaki	-10.7101
▁uğradı	-10.7103
▁Üst	-10.7107
▁gruptan	-10.711
▁vize	-10.7112
Arapça	-10.7113
▁bilinmemektedir	-10.7115
▁çubuklu	-10.7117
▁Harp	-10.7118
▁poli	-10.712
▁işlemci	-10.7121
▁gelindiğinde	-10.7123
▁Tunus	-10.7124
▁Fox	-10.7126
▁alıcı	-10.7126
▁oyunlar	-10.7127
▁sabah	-10.7127
▁kurmak	-10.7128
▁koydu	-10.713
▁Johnson	-10.7131
AP	-10.7132
▁Ölüm	-10.7133
▁bil	-10.7135
▁tarihinden	-10.7135
▁sıraya	-10.7138
lanıp	-10.7138
▁hükümdarı	-10.714
▁diğerleri	-10.7142
Son	-10.7142
▁Sinop	-10.7145
Pro	-10.7146
▁dönüşüm	-10.7149
▁Uşak	-10.7159
▁seslendirme	-10.716
ring	-10.7161
▁1995'	-10.7161
▁mevki	-10.7162
▁Madonna	-10.7163
amadı	-10.7164
üstü	-10.7167
▁soy	-10.7167
fen	-10.7168
▁Os	-10.7171
▁karayolu	-10.7171
▁kurmuştur	-10.7172
=239	-10.7172
▁say	-10.7172
▁oradan	-10.7176
▁kariyerini	-10.7178
▁Young	-10.718
▁değiştirdi	-10.7181
▁zamanı	-10.7183
ichi	-10.7184
▁ip	-10.7186
▁(15	-10.7191
▁şehre	-10.7192
▁değişme	-10.7194
▁And	-10.7194
star	-10.7195
Hersek	-10.7195
▁şehirler	-10.7196
="212	-10.7196
▁Konferansı	-10.72
▁turu	-10.7201
▁etkisiyle	-10.7201
▁yedek	-10.7206
▁fabrika	-10.7206
▁Pek	-10.7211
▁miktar	-10.7211
▁1917	-10.7214
▁birlikler	-10.7215
▁orduları	-10.7222
▁ova	-10.7223
▁Kel	-10.7223
▁(3	-10.7224
▁Elizabeth	-10.7224
abilmesi	-10.7225
▁Ford	-10.723
▁Gre	-10.7231
="239	-10.7236
leridir	-10.7238
▁kayıp	-10.7239
▁mali	-10.7239
▁demektir	-10.725
sur	-10.7251
▁kaybeden	-10.7253
▁Bri	-10.7253
▁tutar	-10.7253
▁donanma	-10.7256
Ve	-10.7258
ata	-10.7258
▁gitme	-10.726
▁değişikliği	-10.7262
▁önlemek	-10.7264
▁Hareketi	-10.7264
sim	-10.7266
▁geçme	-10.7268
▁Yakın	-10.7276
▁kategorisinde	-10.7277
bon	-10.7278
kur	-10.7279
▁zamanlı	-10.7279
▁şampiyonluğunu	-10.728
▁Ex	-10.7281
▁oluşum	-10.7282
▁aşağıda	-10.7283
▁güvenli	-10.7283
▁akarsu	-10.7284
▁yaşamı	-10.7289
rie	-10.7291
heim	-10.7291
İstanbul	-10.7291
▁Giresun	-10.7295
▁bunları	-10.7296
▁aşı	-10.7301
▁sistemler	-10.7302
▁Dede	-10.7306
▁vatandaşı	-10.7309
▁Kazan	-10.7309
="222	-10.7312
▁tanımlanır	-10.7313
▁oluşturdu	-10.7314
▁çıkarma	-10.7314
▁İşletme	-10.7318
▁tanındı	-10.7318
▁parmak	-10.7323
leştirilmiş	-10.7323
▁y	-10.7326
▁1910	-10.7326
▁kapasitesi	-10.7327
▁Mir	-10.733
▁im	-10.7332
▁kitabın	-10.7334
ê	-10.7336
▁Sonuç	-10.7337
▁Ruh	-10.7339
▁Android	-10.734
▁kalıp	-10.7346
▁1931	-10.7351
▁gösterilir	-10.7354
▁saldırıları	-10.7355
▁kazanır	-10.7356
▁fe	-10.7356
laşmış	-10.7357
mü	-10.736
düğü	-10.7363
▁adları	-10.7364
▁Polis	-10.7366
▁Luc	-10.7371
▁1932	-10.7372
▁ot	-10.7372
▁çerçeve	-10.7374
psi	-10.7374
▁konferans	-10.7376
▁oranında	-10.7377
▁kim	-10.7378
▁mükemmel	-10.738
▁1993'	-10.7382
▁açılması	-10.7383
▁yapımcılığını	-10.7384
▁iletken	-10.7384
Har	-10.7384
▁62	-10.7385
layıp	-10.7387
▁ku	-10.7387
Tu	-10.739
▁kurul	-10.7391
▁Leon	-10.7391
▁nadir	-10.7393
▁elemeleri	-10.7401
▁Villa	-10.7404
nç	-10.7405
▁baraj	-10.7406
▁merkezidir	-10.7408
▁Romalılar	-10.7414
sti	-10.7419
ex	-10.7419
▁Işık	-10.742
▁kaynaklar	-10.7421
▁Aleksandr	-10.7421
şık	-10.7422
▁şarkısını	-10.7423
▁bulut	-10.7424
▁bo	-10.7429
▁kök	-10.7429
▁öncü	-10.743
kul	-10.7431
▁İstasyonu	-10.7432
▁co	-10.7434
▁görüşme	-10.7436
▁verilmiş	-10.7439
▁yarışmasında	-10.744
▁gel	-10.744
▁herkes	-10.7441
day	-10.7443
▁çektiği	-10.7443
▁dönemlerinde	-10.7444
▁Tal	-10.7445
▁Bilgiler	-10.7448
▁yetersiz	-10.7452
ori	-10.7453
▁63	-10.7454
▁58	-10.7455
▁FK	-10.7456
▁Matt	-10.7461
▁Lenin	-10.7463
▁sistemini	-10.7464
âh	-10.7465
▁sağlamaktadır	-10.747
▁hatır	-10.747
▁kıyasla	-10.7471
▁getirilen	-10.7472
lamak	-10.7472
▁hâlâ	-10.7473
▁Ac	-10.7473
▁tamamlamıştır	-10.7474
▁Francisco	-10.7483
▁akıllı	-10.7483
▁edici	-10.7485
▁Kulüp	-10.7487
▁adındaki	-10.7488
geç	-10.7492
▁göstermek	-10.7492
▁programları	-10.7494
Ay	-10.7495
▁Tuna	-10.7499
SA	-10.7501
▁dikkatini	-10.7502
▁atma	-10.7502
▁kırsal	-10.7503
▁Araç	-10.7503
yarak	-10.7505
▁Hun	-10.7509
tme	-10.751
▁kariyerinde	-10.7514
▁1915	-10.7515
▁White	-10.7515
▁Us	-10.7516
▁formu	-10.7518
▁Müze	-10.7522
▁üstü	-10.7526
▁Bad	-10.7528
▁Bat	-10.753
▁Artvin	-10.7531
▁Ziya	-10.7534
▁dağılımının	-10.7536
lenerek	-10.7537
▁altyapısında	-10.7538
▁tarafı	-10.7541
▁cilt	-10.7542
▁dönemine	-10.7543
▁Endonezya	-10.7544
▁imha	-10.7546
▁Tony	-10.7547
▁yasası	-10.7551
▁1914	-10.7551
vir	-10.7555
▁ücret	-10.7559
▁School	-10.7562
8'	-10.7563
▁kocası	-10.7564
▁Sezar	-10.7564
▁önemi	-10.7566
▁yazısı	-10.7567
▁asla	-10.7569
▁görmek	-10.7571
lum	-10.7574
▁harf	-10.7575
▁ağız	-10.758
▁Rose	-10.758
▁gir	-10.7581
rus	-10.7582
▁katılır	-10.7582
▁Eser	-10.7583
▁hacmi	-10.7585
▁meşhur	-10.759
türk	-10.7593
▁devamlı	-10.7595
=231	-10.7597
▁Malta	-10.7597
ıldığı	-10.7597
▁yolculuk	-10.7598
▁kemeri	-10.7598
MÖ	-10.7598
▁Liverpool	-10.7598
▁AK	-10.7601
▁yeteneği	-10.7602
▁1929	-10.7605
Rus	-10.7605
line	-10.7605
▁Mahallesi	-10.7608
St	-10.7608
▁gösterme	-10.761
▁kiralık	-10.7611
▁pil	-10.7612
▁1911	-10.7615
gül	-10.7616
▁ülkesinde	-10.7617
zel	-10.7618
liğinin	-10.762
▁Trakya	-10.7621
▁şeyler	-10.7625
▁doldur	-10.7625
▁kadının	-10.7628
▁çekimleri	-10.763
▁öğrenciler	-10.763
▁dergisinde	-10.7631
▁gittiği	-10.7631
▁sat	-10.7634
▁istihbarat	-10.7634
ıldı	-10.7634
kçe	-10.7636
▁araçları	-10.7638
▁Prusya	-10.764
▁testi	-10.7641
ili	-10.7641
▁Kılıç	-10.7642
▁mühendisliği	-10.7647
▁olayın	-10.7648
▁drama	-10.7648
▁pozisyon	-10.7648
▁tasar	-10.7648
▁olmalıdır	-10.7649
▁moda	-10.7649
▁oğludur	-10.7652
soy	-10.7654
▁içerik	-10.7655
▁semt	-10.7656
▁Jon	-10.7656
▁halife	-10.7657
="228	-10.7658
gas	-10.7659
cumhurbaşkanlığı	-10.7661
klarını	-10.7663
dr	-10.7664
kül	-10.7666
sson	-10.7668
▁yükselmiştir	-10.7668
likle	-10.7669
▁rekor	-10.7671
▁ortalaması	-10.7673
="231	-10.7674
▁idaresi	-10.7674
▁izleyici	-10.7674
▁Il	-10.7675
▁sağlığı	-10.7676
▁Wilhelm	-10.7678
▁üreten	-10.7681
▁olmasının	-10.7682
▁Oblastı	-10.7684
▁Hollandalı	-10.7686
▁tanımlar	-10.7689
▁Kong	-10.7692
▁Elektrik	-10.7694
asyonu	-10.7695
ι	-10.7698
▁1940'	-10.7698
▁açtığı	-10.77
▁Gaz	-10.77
▁Time	-10.7701
▁tatil	-10.7702
▁yürüttü	-10.7702
▁söylenir	-10.7706
▁aşamasında	-10.7707
▁azalt	-10.7708
▁bulunmamaktadır	-10.7708
qua	-10.7709
işi	-10.7709
▁anlaştı	-10.771
="271	-10.7713
▁Who	-10.7714
▁Up	-10.7714
dam	-10.7717
▁ortamda	-10.7717
▁Şampiyonluğu	-10.7717
▁ülkeden	-10.7718
AC	-10.7718
▁Kafkas	-10.7719
▁yoktu	-10.772
ath	-10.7724
pra	-10.7724
▁bahçe	-10.7725
rum	-10.7726
▁Hill	-10.7732
▁oluşturma	-10.7733
▁Rıza	-10.7734
üz	-10.7734
▁with	-10.7736
cker	-10.7736
▁hazırladığı	-10.7737
▁Yedi	-10.7739
▁kilisesi	-10.774
▁Boğazı	-10.774
▁zincir	-10.7741
▁Tim	-10.7741
▁%1	-10.7742
▁Model	-10.7744
▁kodu	-10.7745
▁evine	-10.7746
:"	-10.7746
▁Ruslar	-10.775
▁gibidir	-10.7753
▁şa	-10.7755
oğulları	-10.7756
▁istediğini	-10.7756
▁Parlamentosu	-10.7758
▁dışarı	-10.776
▁1994'	-10.7761
▁gönderilen	-10.7761
▁Trans	-10.7762
▁düzeyi	-10.7764
▁—	-10.7768
▁anı	-10.7769
▁otobüs	-10.777
▁Yönetimi	-10.7772
100	-10.7779
▁büyüdü	-10.7779
▁Kongre	-10.7782
▁krallık	-10.7783
hara	-10.7786
▁optik	-10.7786
▁MTV	-10.7789
▁bulan	-10.7789
▁Aslında	-10.779
ssa	-10.779
▁hakem	-10.7793
▁1945'	-10.7798
▁alınma	-10.7803
▁Kanun	-10.7807
▁konularda	-10.7809
larca	-10.7812
▁belirlemek	-10.7814
udur	-10.7818
▁kenar	-10.7819
▁Şampiyon	-10.7821
▁Televizyon	-10.7822
▁Group	-10.7822
▁Ji	-10.7823
ović	-10.7824
▁mermi	-10.7824
oma	-10.7825
▁çalışırken	-10.7826
▁uğraş	-10.783
▁biyolojik	-10.7835
masıyla	-10.7838
▁karşılaştı	-10.784
▁getirmek	-10.784
matik	-10.7841
▁kullanılmış	-10.7841
▁yapay	-10.7841
▁katlı	-10.7842
▁komuta	-10.7844
▁konuları	-10.7846
▁vektör	-10.7847
▁76	-10.785
▁mobil	-10.7851
şu	-10.7851
▁çekilmesi	-10.7851
▁anlayışı	-10.7852
▁Cam	-10.7854
▁Çay	-10.7855
eski	-10.7856
▁(2	-10.786
▁(%	-10.7866
Gi	-10.7866
▁Erken	-10.7869
▁kor	-10.7871
▁düşme	-10.7871
▁Başlangıçta	-10.7873
▁sattı	-10.7875
ə	-10.7875
▁68	-10.7877
▁dönüştü	-10.7878
nas	-10.7881
▁fırsat	-10.7884
▁Joe	-10.7888
▁ayakta	-10.7888
▁inanç	-10.7892
▁Hayat	-10.7902
▁deneysel	-10.7903
FC	-10.7903
Ju	-10.7904
▁hükümdar	-10.7904
▁dünyasında	-10.7905
▁platformu	-10.7906
tasyon	-10.7909
▁yarışmaya	-10.791
▁topraklarında	-10.791
▁diplomatik	-10.7916
▁düzenlediği	-10.7917
bre	-10.7918
▁olurken	-10.7922
aki	-10.7923
▁Köprüsü	-10.7923
▁bakteri	-10.7924
▁yazılar	-10.7925
▁men	-10.7925
▁grupta	-10.7929
▁Kırmızı	-10.7934
▁Mont	-10.7934
pus	-10.7936
▁Kocaeli	-10.7936
▁açan	-10.7937
▁edebiyatı	-10.794
▁köye	-10.7941
▁yap	-10.7941
▁göçmen	-10.7944
sol	-10.7945
teri	-10.7946
▁tutan	-10.795
▁makam	-10.7952
▁Tunç	-10.7956
▁yiyecek	-10.7956
ula	-10.7957
alı	-10.7957
▁gelenek	-10.7958
▁ayrılma	-10.796
▁Bol	-10.7961
▁kira	-10.7965
▁öğretmeni	-10.7966
vers	-10.7966
▁geçmesi	-10.7966
▁Kanadalı	-10.7967
▁tablosu	-10.7969
▁kademe	-10.797
▁özelliklerini	-10.7973
Ga	-10.7979
▁Ten	-10.7979
▁Stephen	-10.7979
▁sessiz	-10.7981
▁ziyade	-10.7984
▁ürünü	-10.7984
▁Barajı	-10.7987
▁gerçekten	-10.7988
Bar	-10.7992
▁2-0	-10.7992
kâr	-10.7993
▁birçoğu	-10.7993
▁Kam	-10.7993
▁gelişimi	-10.7994
▁Ekonomik	-10.7996
Ku	-10.7998
▁Mora	-10.8
ky	-10.8
▁Christian	-10.8005
▁Uygur	-10.8006
▁doğduğu	-10.8009
▁Yayınları	-10.8012
▁piyasa	-10.8013
▁Dairesi	-10.8014
▁ayırt	-10.8014
▁Bla	-10.8015
▁tavsiye	-10.8017
zin	-10.8017
‘	-10.8017
Ali	-10.8018
▁Tat	-10.8018
▁Swift	-10.8021
▁Andrew	-10.8022
▁ajan	-10.8024
ebilmek	-10.8024
▁tehlikeli	-10.8024
▁Dolayısıyla	-10.8026
▁hatları	-10.8027
▁Mihail	-10.8031
▁soylu	-10.8034
▁sonuçlandı	-10.8036
▁yağma	-10.8038
▁bahşı	-10.8038
▁bölgesindeki	-10.8043
▁Cemal	-10.8044
▁Bundesliga	-10.8045
▁denize	-10.8047
▁açmıştır	-10.8048
▁hapse	-10.8049
▁sanatçılar	-10.8051
▁Hong	-10.8051
▁yazında	-10.8055
▁yazan	-10.8057
▁Pierre	-10.8057
▁Madalyası	-10.8058
▁tüfek	-10.8059
▁semtinde	-10.806
▁çevresindeki	-10.8061
▁Bell	-10.8062
▁söylen	-10.8064
▁altyapı	-10.8064
▁Meydanı	-10.8068
▁Ünlü	-10.8069
ل	-10.807
▁Ağrı	-10.8074
▁disiplin	-10.8074
oviç	-10.8075
▁döneme	-10.8075
▁lo	-10.8076
nov	-10.8076
▁yıldızlar	-10.8076
▁Türkçesi	-10.8077
▁oyunda	-10.8077
▁bağlantılı	-10.8077
▁limanı	-10.8078
▁olduğunda	-10.8078
▁biten	-10.8079
▁kut	-10.8081
▁Seçimleri	-10.8082
▁zaten	-10.8083
▁kuzeyde	-10.8083
▁kullanmaya	-10.8084
▁zamanın	-10.8086
▁aldılar	-10.8088
▁Dia	-10.809
▁Balkanlar	-10.809
▁kendisinden	-10.8091
▁Ateş	-10.8092
▁filmlerinde	-10.8093
▁Antonio	-10.8094
▁Times	-10.8096
-21	-10.8097
pol	-10.8097
▁kurşun	-10.8097
▁çıkıp	-10.8097
leşen	-10.8098
▁çabaları	-10.8098
▁yürürlüğe	-10.8101
▁güzellik	-10.8102
ğe	-10.8103
▁görevleri	-10.8104
▁bırakma	-10.811
▁sanatçının	-10.8111
▁«	-10.8112
م	-10.8112
▁yönetti	-10.8116
ebileceği	-10.8116
-14	-10.8119
nal	-10.812
▁ibadet	-10.812
▁Ant	-10.8123
jin	-10.8127
▁67	-10.8128
▁Kazak	-10.813
▁Anton	-10.8131
°	-10.8135
siyon	-10.8135
ns	-10.8138
▁kaynaklarda	-10.8139
▁çekici	-10.814
iti	-10.8141
lendiği	-10.8143
▁Taylor	-10.8143
▁güneyde	-10.8145
▁değerlendirme	-10.8145
▁karşılığı	-10.815
▁takma	-10.8152
▁Mühendisliği	-10.8152
▁çeker	-10.8153
▁Kahramanmaraş	-10.8154
▁ikincisi	-10.8155
▁başlangıcı	-10.8159
iyye	-10.8163
▁Hükümeti	-10.8168
EC	-10.8168
sus	-10.8171
»	-10.8174
▁Fri	-10.8175
▁iktidarı	-10.8176
▁kavram	-10.8176
=233	-10.8177
▁düşmesi	-10.8181
▁koşulları	-10.8182
say	-10.8182
baba	-10.8183
▁göze	-10.8184
▁alanına	-10.8184
▁Hollywood	-10.8184
▁2011-12	-10.8184
▁Gü	-10.8187
-12	-10.8188
▁öğrencileri	-10.8188
▁Parlamento	-10.8191
▁faz	-10.8192
▁bilinmeyen	-10.8192
▁imkânı	-10.8193
▁Kurucu	-10.8193
▁Murad	-10.8194
▁Sc	-10.8195
IS	-10.8197
tab	-10.8197
▁Yavuz	-10.8197
▁özgürlük	-10.8203
▁getir	-10.8203
▁şehirleri	-10.8203
▁85	-10.8203
▁yazmaya	-10.8204
yat	-10.8206
▁College	-10.8206
▁1912	-10.8209
▁bant	-10.821
▁Ok	-10.8213
▁doğuda	-10.8213
ο	-10.8216
▁bağı	-10.8218
▁Pla	-10.822
▁bugüne	-10.822
▁nispeten	-10.822
▁akşam	-10.8223
▁bilgisi	-10.8225
değiştirilmiştir	-10.8225
▁uygulanması	-10.8228
▁çekimi	-10.8231
▁yaşına	-10.8231
▁Dili	-10.8233
▁Lewis	-10.8235
*	-10.8237
="233	-10.8238
çiler	-10.8239
▁milli	-10.8242
ré	-10.8242
▁vaka	-10.825
▁çay	-10.825
▁Lev	-10.8251
vil	-10.8252
▁66	-10.8256
▁deneyim	-10.8256
▁yeraltı	-10.8259
▁isteme	-10.8259
▁uyuşturucu	-10.8259
Gu	-10.826
▁yumuşak	-10.826
▁Cas	-10.826
▁Napolyon	-10.8264
▁İdari	-10.8264
▁kararlı	-10.8265
▁Rumeli	-10.8266
madan	-10.8266
▁söylediği	-10.8267
BA	-10.8267
lemiştir	-10.8268
▁demokrasi	-10.8268
▁Brian	-10.8269
▁sekizinci	-10.8269
▁Karşı	-10.827
▁Vladimir	-10.8271
hel	-10.8272
▁kitapta	-10.8275
▁benim	-10.8275
▁Köyde	-10.8277
▁Ray	-10.8277
▁kablo	-10.8278
sunu	-10.8278
key	-10.8281
MS	-10.8281
▁kurgu	-10.8283
mini	-10.8284
iya	-10.8284
iyeti	-10.8287
▁istasyon	-10.8288
yl	-10.8291
▁Metin	-10.8292
▁negatif	-10.8294
▁tesisleri	-10.8296
sy	-10.8297
malıdır	-10.8297
▁fonksiyon	-10.8298
win	-10.8302
▁Sey	-10.8302
▁Championship	-10.8302
▁tut	-10.8303
▁ulaşır	-10.8304
▁Onur	-10.8304
medi	-10.8307
▁haricinde	-10.8308
kıs	-10.8309
▁penaltı	-10.831
▁işle	-10.8311
▁Steve	-10.8312
▁destekleyen	-10.8314
▁sözcük	-10.8314
▁Mike	-10.8316
▁Şirketi	-10.8317
âm	-10.8318
▁üret	-10.832
▁soyadı	-10.8322
=271	-10.8323
="166	-10.8323
▁akademisyen	-10.8324
▁kuvvetlerinin	-10.8325
ön	-10.8326
▁Gaga	-10.8326
▁Mis	-10.8328
▁İspanyolca	-10.8328
▁Henri	-10.833
▁katılmaya	-10.8331
▁Şehri	-10.8331
Car	-10.8331
▁Şe	-10.8333
DA	-10.8336
▁Mes	-10.8337
bilim	-10.8341
▁yaratıcı	-10.8341
▁onlar	-10.8345
▁eriş	-10.8346
н	-10.8349
▁dersler	-10.8351
д	-10.8352
▁öğreti	-10.8356
▁ortamı	-10.836
▁1989'	-10.8361
▁Meslek	-10.8361
▁gitmek	-10.8366
▁Halife	-10.8367
▁Kri	-10.8369
▁kuzeybatısında	-10.8371
▁it	-10.8372
▁yüzü	-10.8373
kh	-10.8373
meyi	-10.8373
▁Çam	-10.8376
▁kriz	-10.8378
ülü	-10.8379
We	-10.8381
▁sözleşmesi	-10.8383
▁des	-10.8383
▁Koreli	-10.8383
▁işlev	-10.8386
▁sebeple	-10.8386
suke	-10.8387
▁olmasa	-10.8387
fre	-10.8387
▁Kahire	-10.839
▁manastır	-10.8391
▁çıkışı	-10.8396
▁organik	-10.8397
▁Kütüphanesi	-10.8398
▁atmosfer	-10.8399
▁devrim	-10.8401
▁Dev	-10.8403
▁Win	-10.8404
▁akımı	-10.8405
özü	-10.8405
▁yardımı	-10.8407
emez	-10.8407
▁Güneydoğu	-10.841
▁w	-10.8413
ston	-10.8414
▁almakta	-10.8419
▁fizikçi	-10.842
▁kütlesi	-10.842
▁Cla	-10.8422
nak	-10.8422
▁ticareti	-10.8422
▁Arena	-10.8424
▁düşünür	-10.8424
▁Turnuva	-10.8425
▁başlaması	-10.8429
▁konuşulan	-10.8429
▁uyumlu	-10.843
▁Bek	-10.8432
▁tıbbi	-10.8434
▁ab	-10.8436
▁öldürülmesi	-10.8436
maktaydı	-10.8437
▁kulak	-10.8438
▁yürüyüş	-10.844
▁ağacı	-10.8441
▁Mektebi	-10.8447
mba	-10.8449
▁kurgusal	-10.845
▁listede	-10.8452
dî	-10.8456
▁tanımlamak	-10.8458
▁bireyler	-10.846
="161	-10.8461
▁yarattığı	-10.8463
▁analizi	-10.8465
▁Sami	-10.8466
▁mer	-10.8466
▁statüsü	-10.8466
ies	-10.8467
▁oyuncuları	-10.8467
▁Başbakanı	-10.847
▁Formula	-10.8473
iyo	-10.8473
Go	-10.8474
▁verici	-10.8475
▁Ly	-10.8477
likler	-10.848
▁Zonguldak	-10.8487
▁düşüş	-10.8487
iler	-10.8492
ebilmektedir	-10.8493
Hu	-10.8495
end	-10.8496
▁öğrendi	-10.85
tem	-10.8501
▁otorite	-10.8504
▁değiş	-10.8505
▁mimarisi	-10.8507
▁grubuna	-10.8507
▁element	-10.8508
▁Bro	-10.8509
çak	-10.851
▁Sab	-10.8512
▁Resmi	-10.8515
▁77	-10.8515
▁şans	-10.8516
▁Plan	-10.8518
▁salon	-10.8518
lıklar	-10.8518
▁bulmuştur	-10.8518
▁padişah	-10.8519
ure	-10.8519
▁Metal	-10.852
▁Toprak	-10.852
yolu	-10.8521
▁indi	-10.8521
pin	-10.8522
▁saldırdı	-10.8524
▁sayılar	-10.853
▁Arslan	-10.8532
▁Program	-10.8532
▁Poli	-10.8533
ture	-10.8535
▁ör	-10.8536
dom	-10.8537
▁ulaşıl	-10.8538
ges	-10.8538
▁kanseri	-10.854
▁dünyadaki	-10.854
▁merkezleri	-10.854
▁Osmanlılar	-10.854
▁verileri	-10.8543
▁etmişti	-10.8547
▁Örnek	-10.8549
▁canlandırdı	-10.8549
▁59	-10.8552
gos	-10.8552
▁yazarlar	-10.8554
▁Opera	-10.8554
▁yıldan	-10.8555
▁başarmıştır	-10.856
malı	-10.8561
tık	-10.8562
▁Hans	-10.8563
▁Land	-10.8563
▁yaşamıştır	-10.8563
▁geçirmek	-10.8564
▁Fizik	-10.8564
▁şimdiki	-10.8566
Ser	-10.8567
Pi	-10.8567
▁rahat	-10.8572
sing	-10.8574
Par	-10.8576
▁August	-10.8577
ilmiştir	-10.8582
▁Panzer	-10.8583
▁yerleşik	-10.8586
sek	-10.8586
▁konserler	-10.8587
ışı	-10.8592
▁belediyesine	-10.8593
raz	-10.8594
▁radyasyon	-10.8596
▁esin	-10.8597
▁fakülte	-10.8598
New	-10.8598
▁devrimci	-10.8599
▁gitarist	-10.8602
▁bebek	-10.8604
▁olurlar	-10.8605
▁sahte	-10.8607
▁edebilir	-10.8607
▁senaryosunu	-10.8608
▁Marie	-10.8612
▁stil	-10.8612
▁Libya	-10.8613
▁kitle	-10.8614
▁seçti	-10.8614
▁donanması	-10.8615
▁Kraliçe	-10.8618
izasyon	-10.8621
▁toz	-10.8623
▁amaçla	-10.8623
▁American	-10.863
Du	-10.8634
▁örgütü	-10.8634
▁çöl	-10.8636
▁Monte	-10.8637
ılmıştır	-10.8637
▁tedavisi	-10.8637
▁personel	-10.8638
▁yönetme	-10.864
▁eyaleti	-10.8641
▁Sibirya	-10.8641
▁mesaj	-10.8642
▁ışığın	-10.8643
▁kısımları	-10.8644
▁Carlos	-10.8647
▁vadi	-10.8647
▁dağlık	-10.8649
▁taraftan	-10.8651
▁annesinin	-10.8651
▁Geleneksel	-10.8651
▁kategori	-10.8653
▁Billboard	-10.8654
tak	-10.8655
▁kabile	-10.8656
▁topladı	-10.8659
▁katil	-10.866
▁Barcelona	-10.8661
▁bölümden	-10.8663
▁problem	-10.8665
▁artması	-10.8666
▁istila	-10.8668
▁Maliye	-10.8669
▁üreticisi	-10.867
▁kalk	-10.8673
▁kutu	-10.8675
▁çıkarıldı	-10.8675
▁kişiyi	-10.8676
▁Recep	-10.8677
▁küre	-10.8678
ışma	-10.8681
▁Pet	-10.8682
="163	-10.8682
▁çelik	-10.8685
▁başlıklı	-10.8687
▁tez	-10.8688
▁Türkçeye	-10.8689
▁firma	-10.869
▁farklıdır	-10.869
umu	-10.8696
▁unvan	-10.8696
▁mahallenin	-10.8696
▁oynandı	-10.8697
▁adres	-10.87
▁600	-10.87
via	-10.87
lıkları	-10.8702
▁kullanmaktadır	-10.8704
▁Mut	-10.8705
mun	-10.8706
▁Gold	-10.8713
▁Şimdi	-10.8716
▁(2001)	-10.8717
nie	-10.8718
▁Evi	-10.872
=262	-10.8721
hil	-10.8722
▁1909	-10.8722
▁yayınladığı	-10.8723
arı	-10.8724
▁Die	-10.8726
▁kapsar	-10.8728
▁psikolojik	-10.873
ücü	-10.873
200	-10.8731
▁yavru	-10.8732
▁hoş	-10.8734
▁dağılım	-10.8736
▁gül	-10.8739
▁götür	-10.874
irler	-10.8741
▁ülkeyi	-10.8741
▁dayanarak	-10.8742
▁karışımı	-10.8743
▁konumu	-10.8747
▁Post	-10.8749
▁gi	-10.8751
▁takımdan	-10.8752
▁Müdürü	-10.8752
▁bölgeler	-10.8753
▁bırakarak	-10.8753
▁Muş	-10.8754
▁sürer	-10.8755
▁olun	-10.8756
▁haftasında	-10.8758
ett	-10.8759
▁rahatsız	-10.8759
▁sayısının	-10.876
▁Tümeni	-10.8762
▁yayını	-10.8762
▁Sonunda	-10.8762
▁sevdiği	-10.8763
▁kâğıt	-10.8767
▁Belgrad	-10.8767
▁kilo	-10.8768
Fe	-10.8768
▁Orada	-10.8771
fra	-10.8772
▁yüzölçümü	-10.8773
▁dö	-10.8773
▁Ey	-10.8774
▁mor	-10.8775
▁beslenme	-10.8781
▁kutup	-10.8782
kir	-10.8783
▁2010-11	-10.8784
▁Cat	-10.8785
▁elendi	-10.8787
▁61	-10.8789
▁hakkını	-10.8792
="262	-10.8793
▁ilçenin	-10.8795
▁ordusunu	-10.8795
▁görevden	-10.8798
Star	-10.88
oba	-10.8807
▁şarkıcısı	-10.8811
▁maçlarını	-10.8812
▁mağlubiyet	-10.8813
▁Maç	-10.8813
▁şarap	-10.8813
tör	-10.8814
AM	-10.8815
▁Sh	-10.8817
▁sü	-10.8817
ılma	-10.8818
▁işkence	-10.8818
▁tapınak	-10.8818
ruk	-10.882
▁Proje	-10.8821
▁stratejik	-10.8821
▁öğrenir	-10.8823
▁kalması	-10.8824
▁korsan	-10.8824
▁tekne	-10.8825
oksi	-10.8826
▁şart	-10.8827
▁Enerji	-10.8828
▁oluşu	-10.8832
▁pat	-10.8833
▁öldürür	-10.8834
▁düzenlenmiştir	-10.8837
▁rekoru	-10.8837
▁kimliği	-10.8838
▁Polonyalı	-10.8838
▁galip	-10.8839
▁harca	-10.884
▁finali	-10.8842
▁maçlar	-10.8843
▁PKK	-10.8843
▁öğrenim	-10.8843
▁yapımında	-10.8845
▁açıklamada	-10.8848
▁örnekler	-10.8851
far	-10.8851
▁merkezinin	-10.8851
▁yapıları	-10.8853
mine	-10.8853
▁özet	-10.8853
▁turnuvada	-10.8859
▁çıkmaya	-10.8859
göz	-10.8864
▁Bisiklet	-10.8869
▁800	-10.887
mbo	-10.8872
▁perde	-10.8874
▁Antakya	-10.8874
▁uyan	-10.8875
▁eleştirmenler	-10.8882
▁boyun	-10.8883
▁varlık	-10.8883
hiro	-10.8893
▁Deli	-10.8893
eğe	-10.8898
▁başbakanı	-10.8899
▁gemileri	-10.89
▁River	-10.89
▁ca	-10.8901
▁kuvvetler	-10.8904
ric	-10.8904
▁masa	-10.8909
б	-10.891
▁inan	-10.8911
oto	-10.8911
▁hesaplama	-10.8913
▁trafik	-10.8915
▁batıda	-10.8915
▁kulübün	-10.8917
▁çiçek	-10.892
▁sezonunu	-10.8921
▁belir	-10.8923
▁bırakmıştır	-10.8923
-8	-10.8924
▁hanedanı	-10.8928
AL	-10.8928
▁başlayıp	-10.8932
▁noktaları	-10.8934
▁takımını	-10.8934
▁atanmıştır	-10.8935
▁yayla	-10.8936
stein	-10.8939
=240	-10.8939
▁Çal	-10.8939
cht	-10.8939
▁yuva	-10.894
iv	-10.894
▁maksimum	-10.8941
▁Yardımcılığı	-10.8941
▁Çelik	-10.8942
▁vs	-10.8943
out	-10.8946
▁God	-10.8948
▁geldiğini	-10.8949
▁eşya	-10.895
▁Dol	-10.8951
="240	-10.8952
▁eve	-10.8953
▁bağlayan	-10.8953
▁büyüklüğü	-10.8955
çin	-10.8956
▁hareketli	-10.896
▁koşu	-10.8964
▁haftalık	-10.8965
cısı	-10.8966
▁Fil	-10.8966
pur	-10.897
▁talebi	-10.897
▁Eric	-10.897
rey	-10.8971
▁1905	-10.8975
▁Tak	-10.8975
▁karakterler	-10.8975
etti	-10.8977
▁anlama	-10.8981
uma	-10.8983
▁evde	-10.8983
▁North	-10.8984
▁koloni	-10.8986
▁Fre	-10.8987
▁görünen	-10.8988
ullah	-10.8988
▁sayılır	-10.8989
▁Sor	-10.899
▁düzeyinde	-10.899
▁parçacık	-10.899
▁gösterimi	-10.8991
▁filmlerde	-10.8991
▁savunan	-10.8991
▁kuralları	-10.8993
▁caz	-10.8994
▁Norman	-10.8994
▁evrenin	-10.8994
▁etiketiyle	-10.8994
▁basıncı	-10.8997
▁görevlerinde	-10.9004
▁Reis	-10.9006
oni	-10.9009
▁sunulan	-10.9009
▁ligin	-10.9009
▁teorik	-10.9009
▁rast	-10.9014
ref	-10.9016
▁nüfusa	-10.9017
▁boyutu	-10.902
▁Wal	-10.902
▁Adıyaman	-10.9023
▁li	-10.9025
sia	-10.9027
▁Komutanı	-10.9028
▁eliptik	-10.9029
▁konular	-10.9029
▁Hizmet	-10.903
▁kitaplar	-10.9032
▁tasarlanmıştır	-10.9033
▁hayvancılık	-10.9035
▁1886	-10.9038
yıldız	-10.904
▁devir	-10.9043
▁hazırladı	-10.9045
abildi	-10.9045
▁belediyesi	-10.9046
▁Geri	-10.9047
▁çocukların	-10.9047
pel	-10.9048
tia	-10.9049
▁hükümet	-10.9049
▁filo	-10.905
▁sandalye	-10.9055
▁atış	-10.9056
▁başlığı	-10.9056
▁Peru	-10.9056
500	-10.9058
wer	-10.9058
cin	-10.9059
▁atıldı	-10.906
▁Emre	-10.906
bb	-10.906
▁Michel	-10.9066
▁depolama	-10.9068
yurt	-10.9068
▁yapıya	-10.9069
▁Game	-10.907
▁69	-10.9072
▁hayatının	-10.9073
▁etmekte	-10.9073
▁gez	-10.9074
▁iyice	-10.9075
▁bulunmakta	-10.9076
▁pre	-10.9077
▁Wood	-10.9078
▁miras	-10.9078
▁sembolü	-10.9078
▁imzalanan	-10.9083
aba	-10.9085
▁gerçekleşmiştir	-10.9085
▁öğrencilerin	-10.9086
▁Virginia	-10.9087
▁olağanüstü	-10.9091
▁Selçuk	-10.9092
▁tarihe	-10.9093
▁referans	-10.9096
▁sevgilisi	-10.9097
▁tohum	-10.9097
▁mücadelesi	-10.9097
▁şarkıyla	-10.9098
nek	-10.91
▁plastik	-10.9102
▁organ	-10.9105
ılabilir	-10.9106
▁iniş	-10.9106
geliştirilmiştir	-10.9108
▁başarıyla	-10.9109
şarkı	-10.9114
ness	-10.9114
▁öneri	-10.9117
▁kaldırıldı	-10.9117
uf	-10.9119
▁dur	-10.912
▁cisim	-10.9122
▁man	-10.9123
reguesia	-10.9123
▁üçlü	-10.9125
sizlik	-10.9125
ast	-10.9125
mmer	-10.9126
▁Lin	-10.9128
▁kampanya	-10.913
gir	-10.9132
Con	-10.9136
ín	-10.9136
▁belirlenen	-10.9138
ه	-10.9139
▁oto	-10.9142
▁Hikâye	-10.9144
lot	-10.9144
▁Taka	-10.9144
▁ال	-10.9145
▁sıkça	-10.9145
▁kanadı	-10.9151
▁Doğal	-10.9151
▁adıdır	-10.9154
▁ok	-10.9154
▁evden	-10.9155
▁bek	-10.9155
inci	-10.9157
▁COVID	-10.9159
▁Nüfus	-10.9161
”,	-10.9162
▁kömür	-10.9162
▁matematiksel	-10.9163
▁benzeyen	-10.9165
▁Lie	-10.9166
ere	-10.9169
▁Hatay	-10.9169
▁nehri	-10.9171
▁yetki	-10.9171
▁seviyesi	-10.9174
▁kaynaklı	-10.9174
▁endüstri	-10.9174
▁250	-10.9175
▁şampiyona	-10.9175
▁Juan	-10.9176
II	-10.9177
▁Motor	-10.9177
acı	-10.9178
▁Mirası	-10.9179
▁düet	-10.918
▁İm	-10.9183
▁Aksu	-10.9184
▁bırakır	-10.9185
▁binalar	-10.9185
▁Özbekistan	-10.9186
▁edebi	-10.9188
▁demiştir	-10.9188
▁döneminden	-10.9188
▁bilimkurgu	-10.9191
▁93	-10.9191
Portekizce	-10.9192
▁Salonu	-10.9199
▁İsveçli	-10.92
▁tamamlandı	-10.9201
▁Milletvekili	-10.9202
▁numaradan	-10.9203
▁bulma	-10.9204
▁kongre	-10.9204
▁Eu	-10.9207
▁fosil	-10.9207
▁Tele	-10.9207
▁arkeolojik	-10.9207
▁keskin	-10.9207
▁Turizm	-10.9208
▁74	-10.9208
▁SC	-10.921
▁denizaltı	-10.921
▁profesörü	-10.9214
Wa	-10.9218
▁duvarları	-10.9219
▁sin	-10.922
▁yetişkin	-10.922
▁beğeni	-10.922
aga	-10.922
▁insanlara	-10.9226
ington	-10.9226
▁Massachusetts	-10.9228
▁Ohio	-10.9228
doğan	-10.9229
Kon	-10.9231
▁birinde	-10.9231
▁İskoç	-10.9232
▁Samsunspor	-10.9233
▁bakır	-10.9233
▁Dizinin	-10.9237
Ki	-10.9238
örü	-10.924
▁izleyen	-10.924
▁girmesi	-10.9241
▁liderleri	-10.9244
gs	-10.9245
▁üs	-10.9247
▁Reg	-10.9247
▁gör	-10.9248
▁Horasan	-10.9249
▁tema	-10.9249
▁Napoli	-10.925
▁Müdür	-10.9251
atif	-10.9251
▁kaldırılması	-10.9253
▁sermaye	-10.9255
▁kuran	-10.9256
lah	-10.9257
▁Normal	-10.9258
▁çek	-10.9258
▁güneybatısında	-10.926
▁Hart	-10.9261
▁girme	-10.9261
▁boru	-10.9261
▁Avrupalı	-10.9263
▁akışı	-10.9264
▁bulunabilir	-10.9266
▁üreme	-10.9267
▁hip	-10.9268
▁borç	-10.9269
▁yayınlanmış	-10.927
▁etkinlikler	-10.9276
▁ülkelerinde	-10.9277
sat	-10.9279
âr	-10.9281
▁kılıç	-10.9281
▁Walter	-10.9284
▁High	-10.9285
mont	-10.9285
▁kör	-10.9285
▁Özgür	-10.9286
hor	-10.9288
▁akış	-10.9291
ebilmesi	-10.9291
him	-10.9292
▁beklenen	-10.9294
▁kalite	-10.9295
▁gençlik	-10.9297
▁cihazlar	-10.9298
▁tanımlanan	-10.9299
▁Arthur	-10.93
▁Yüz	-10.9301
▁vezir	-10.9302
▁amcası	-10.9303
▁çoklu	-10.9305
▁geride	-10.9308
▁bölümler	-10.9308
▁sömürge	-10.9309
▁karakterleri	-10.9309
▁egemen	-10.931
kâ	-10.9311
="208	-10.9311
▁Yönetmen	-10.9312
▁Resim	-10.9312
▁federal	-10.9313
▁hu	-10.9314
dus	-10.9315
div	-10.9315
▁diyerek	-10.9316
▁otuz	-10.9317
ple	-10.9322
▁peri	-10.9323
tit	-10.9323
Han	-10.9323
▁Cengiz	-10.9324
▁Disney	-10.9324
▁coğrafya	-10.9324
▁kullan	-10.9326
▁saldırgan	-10.933
▁Wil	-10.9331
eme	-10.9333
▁fırtına	-10.9335
bro	-10.9336
▁Galler	-10.9337
▁kaplı	-10.9344
▁ordunun	-10.9346
▁onay	-10.9346
▁araştırmaları	-10.9346
sındaki	-10.9347
_3	-10.9348
▁gölge	-10.9349
▁kuzeydoğusunda	-10.9351
▁dal	-10.9354
▁yenildi	-10.9354
▁köyleri	-10.9354
▁ayır	-10.9359
▁çalı	-10.9361
Mü	-10.9366
▁farklılık	-10.9368
▁Berk	-10.9374
pot	-10.9376
▁çocuğun	-10.9377
ıt	-10.9377
▁AC	-10.9379
▁versiyon	-10.9382
▁fabrikası	-10.9386
▁Out	-10.9386
▁eserin	-10.9386
▁merceksi	-10.9386
▁tuttu	-10.9387
▁doğmuş	-10.9387
▁Fran	-10.9387
▁Sony	-10.9388
Der	-10.9392
atör	-10.9392
▁Sağ	-10.9393
▁180	-10.9394
▁ucunda	-10.9395
▁plana	-10.9398
▁sürülmüştür	-10.9399
▁BM	-10.94
▁komut	-10.9405
▁Bülent	-10.9406
▁örtüsü	-10.9415
olo	-10.9417
▁Bank	-10.9417
▁laboratuvar	-10.9418
▁Victoria	-10.9419
▁Eş	-10.9419
▁maçını	-10.9421
▁Town	-10.9421
▁ilave	-10.9421
▁çalışmak	-10.9422
ding	-10.9424
kay	-10.9424
▁bitkiler	-10.9424
▁Dünyanın	-10.9424
feld	-10.9425
▁hayran	-10.9425
▁kilit	-10.9427
▁Nes	-10.9429
▁verdiler	-10.943
▁Kes	-10.943
Lu	-10.943
▁şeklindedir	-10.9432
▁(12	-10.9433
▁haklarını	-10.9434
▁dergisinin	-10.9437
▁Alfred	-10.9437
nci	-10.9437
▁avantaj	-10.9438
▁bakanı	-10.9438
▁Illinois	-10.9442
▁Bazen	-10.9443
▁Piyade	-10.9443
moto	-10.9443
▁hakimiyeti	-10.9444
▁topçu	-10.9445
▁kaçtı	-10.9446
▁getirilmesi	-10.9446
▁farklılıklar	-10.9446
▁uyarı	-10.9447
▁Hakan	-10.9449
▁eksikliği	-10.9451
mor	-10.9453
▁takviye	-10.9453
▁tuş	-10.9454
TP	-10.9457
▁dua	-10.9457
Em	-10.9457
▁Den	-10.9459
▁rüya	-10.9459
▁kuram	-10.9461
▁kayıtları	-10.9461
▁güvenliği	-10.9461
▁cümle	-10.9462
▁Şanlıurfa	-10.9464
▁dere	-10.9465
▁mühendislik	-10.9466
undan	-10.9469
▁oylama	-10.9469
▁yorumlar	-10.947
▁öldüğü	-10.9471
▁Emin	-10.9472
▁önceleri	-10.9473
▁grubudur	-10.9473
İs	-10.9474
▁golü	-10.9475
▁Dergisi	-10.9475
▁Harekâtı	-10.9477
olojik	-10.9479
kça	-10.9479
▁ilginç	-10.9487
cisi	-10.9488
▁dönmesi	-10.9489
hid	-10.9491
▁verilme	-10.9492
kom	-10.9492
▁l	-10.9493
▁durumuna	-10.9494
▁Veli	-10.9495
▁Inter	-10.9495
ort	-10.9496
▁Çiçek	-10.9497
▁Pala	-10.9499
ator	-10.9499
▁Tür	-10.9501
▁Turan	-10.9501
▁kahve	-10.9502
▁oluşturulmuştur	-10.9504
▁yolunda	-10.9505
gli	-10.9506
▁çalışmış	-10.9506
inger	-10.9507
▁klavye	-10.9508
IN	-10.9512
▁mı	-10.9512
▁oluşuyordu	-10.9515
ρ	-10.9516
▁şeyin	-10.9518
yecek	-10.952
▁alay	-10.9524
▁etkinlikleri	-10.9524
▁düşünülen	-10.9525
▁prens	-10.9526
jen	-10.9531
▁Bou	-10.9531
▁stili	-10.9535
▁birleşme	-10.9535
ale	-10.9537
ışık	-10.9539
▁temin	-10.954
▁Corporation	-10.954
▁yetiştir	-10.9541
bak	-10.9541
▁öyle	-10.9542
▁bulunuyor	-10.9542
▁ucu	-10.9542
ν	-10.9542
▁Bul	-10.9544
▁çevresi	-10.9545
▁turne	-10.9546
▁cinsi	-10.9551
▁ez	-10.9551
dılar	-10.9553
▁Azeri	-10.9553
▁düşmüştür	-10.9554
▁Sk	-10.9554
▁bitiren	-10.9556
▁medrese	-10.9557
▁tahrip	-10.9557
lerek	-10.9557
▁kenarında	-10.9558
▁şirketler	-10.9559
▁Vilayeti	-10.956
▁Kab	-10.9561
Can	-10.9562
▁Las	-10.9564
▁Doğru	-10.9564
meyen	-10.9564
▁Oyunun	-10.9564
▁yakından	-10.9564
▁makinesi	-10.9565
▁1988'	-10.9565
▁Yapılan	-10.9565
▁başlamıştı	-10.9566
▁hekim	-10.9567
▁Letonya	-10.9568
▁yüzlerce	-10.9569
▁anısına	-10.9569
▁mutlak	-10.9569
▁Otto	-10.9569
▁İşleri	-10.9572
▁kuşu	-10.9573
▁zaferi	-10.9573
▁sürdüren	-10.9581
▁soruşturma	-10.9583
Ti	-10.9584
▁Yabancı	-10.9584
▁başlık	-10.9589
▁Türkleri	-10.959
▁seslendirdi	-10.959
mark	-10.959
▁gösterim	-10.959
Don	-10.9592
▁VII	-10.9593
rk	-10.9594
PA	-10.9596
rarak	-10.9596
▁yaratma	-10.9596
cio	-10.9598
▁Nil	-10.9599
▁sipariş	-10.9601
▁mevsim	-10.9601
▁Dio	-10.9602
▁Â	-10.9603
eo	-10.9605
▁Long	-10.9608
▁öncelikle	-10.9609
klerini	-10.961
▁Hell	-10.9611
▁helikopter	-10.9612
▁Gazetesi	-10.9613
▁yaşamaya	-10.9616
▁sınav	-10.9617
▁bölümünün	-10.9622
▁Avcı	-10.9622
ت	-10.9623
▁dönmüştür	-10.9623
▁Sto	-10.9624
▁Haçlılar	-10.9626
pu	-10.9626
▁tenis	-10.9626
▁mercekli	-10.9627
▁ilkesi	-10.9628
▁Genelkurmay	-10.9628
▁Sy	-10.9631
▁Gine	-10.9633
="227	-10.9635
▁edilme	-10.9639
▁gerekse	-10.964
▁mitolojisinde	-10.9641
▁yerleşen	-10.9642
aka	-10.9645
▁Ça	-10.9648
▁(11	-10.9648
м	-10.9649
▁hadis	-10.965
▁yanlısı	-10.965
▁ikamet	-10.9656
▁içme	-10.9656
▁Boston	-10.9658
▁tarzında	-10.9659
ld	-10.9661
▁alıyor	-10.9666
▁oyunudur	-10.9667
▁ağabeyi	-10.9667
▁Milan	-10.9667
▁(10	-10.9668
▁gidil	-10.9669
▁1987'	-10.9673
▁kura	-10.9674
▁kuşlar	-10.9674
▁kemerini	-10.9675
▁gerçekleşir	-10.9675
▁çoğunu	-10.9676
▁olabileceğini	-10.9678
▁katılmak	-10.9681
▁maddenin	-10.9686
▁çatı	-10.9686
▁Pay	-10.9688
▁izledi	-10.969
cor	-10.9691
▁Hakları	-10.9692
▁gemiler	-10.9701
▁üçgen	-10.9702
▁Nuri	-10.9703
▁Fel	-10.9703
▁kasabası	-10.9703
mâ	-10.9704
▁kullanılma	-10.9704
▁́	-10.9712
▁José	-10.9715
▁görüşmeler	-10.9715
▁Almanyası	-10.9719
▁balığı	-10.9719
▁düş	-10.9719
more	-10.972
▁yılan	-10.9722
▁görüldüğü	-10.9723
▁oluşmuş	-10.9724
▁Arka	-10.9724
ese	-10.9726
▁Sav	-10.9726
▁göster	-10.9727
▁aldıktan	-10.973
▁Sistem	-10.9731
▁Düz	-10.9732
▁torunu	-10.9733
▁yazıldı	-10.9734
For	-10.9734
▁başından	-10.9738
ن	-10.9742
▁yollar	-10.9743
▁ısrar	-10.9745
▁kadrosu	-10.9746
▁François	-10.9746
▁Albümde	-10.9746
yalı	-10.9748
▁Kul	-10.9753
▁mono	-10.9755
▁sır	-10.9756
▁taşın	-10.9757
▁Hur	-10.9761
▁manken	-10.9761
▁Ürdün	-10.9762
▁olmasıyla	-10.9765
▁(14	-10.9769
lüğe	-10.9771
▁ödüller	-10.9774
üdür	-10.9775
Hi	-10.9775
dağı	-10.9777
▁Orkestrası	-10.9779
▁içinden	-10.9781
sit	-10.9781
▁Sand	-10.9785
▁bağlanmıştır	-10.9787
▁verildiği	-10.9788
▁Böyle	-10.979
▁mod	-10.9792
ildiği	-10.9793
в	-10.9793
▁şirketleri	-10.9794
▁şefi	-10.9794
eau	-10.9796
▁verdikleri	-10.98
▁çalın	-10.9801
ick	-10.9802
sik	-10.9802
beyli	-10.9805
▁kaynaklanan	-10.981
▁adalet	-10.9811
▁Gümüş	-10.9812
▁İmam	-10.9813
▁oluşumu	-10.9815
▁Projesi	-10.9815
▁Ky	-10.9817
sse	-10.9817
▁belediyedir	-10.9818
▁açığa	-10.9818
▁yüklü	-10.9821
▁Valisi	-10.9823
▁Team	-10.9824
▁etkisini	-10.9827
▁PC	-10.9828
dd	-10.983
▁materyal	-10.983
▁Cuma	-10.9832
▁simge	-10.9832
▁Mavi	-10.9832
▁denklemi	-10.9833
▁düşüncesi	-10.9833
▁Saf	-10.9834
▁rütbesine	-10.9834
lamaktadır	-10.9835
▁kül	-10.9836
▁Yoshi	-10.9838
▁milliyetçi	-10.9838
lemesi	-10.9843
ço	-10.9846
▁açma	-10.9846
▁yapının	-10.9847
▁kurmuş	-10.985
niz	-10.9851
▁gidip	-10.9851
şir	-10.9851
▁yoğunluk	-10.9852
▁af	-10.9855
▁hücreler	-10.9856
▁sayısını	-10.9859
▁uzanır	-10.9863
oka	-10.9863
▁birey	-10.9868
▁atlama	-10.9869
ign	-10.987
▁Şiir	-10.9871
▁Girit	-10.9872
ons	-10.9873
▁Yurt	-10.9874
▁şubesi	-10.9874
▁türünde	-10.9877
▁çekmiştir	-10.9877
▁dağıtım	-10.9878
▁görü	-10.9879
▁Charlie	-10.9882
ias	-10.9882
▁gelin	-10.9886
LA	-10.9888
▁kuyruk	-10.9888
▁strateji	-10.9889
▁beden	-10.9889
▁Gur	-10.9894
▁Romalı	-10.9894
▁yöntemler	-10.9895
üne	-10.9895
▁belirlenir	-10.9895
▁oyuncunun	-10.9897
▁ölür	-10.9899
▁İnşaat	-10.9899
▁İoannis	-10.9902
likten	-10.9902
▁Kulesi	-10.9903
▁bölümün	-10.9904
▁kıyısı	-10.9905
▁SK	-10.9906
▁Tru	-10.9907
▁(4	-10.9908
▁payı	-10.9911
▁konut	-10.9913
▁araştırmacılar	-10.9914
▁belirtilen	-10.9915
▁aracın	-10.9916
DP	-10.9917
▁r	-10.9918
ert	-10.9918
▁Raw	-10.9919
▁1,5	-10.9919
▁hayvanların	-10.9921
▁kraliyet	-10.9923
▁düğün	-10.9924
▁ilgisini	-10.9924
▁Sonrasında	-10.9926
▁turunda	-10.993
▁koalisyon	-10.9931
▁bizzat	-10.9931
▁tören	-10.9931
▁karıştır	-10.9934
▁ilgisi	-10.9937
▁güneydoğusunda	-10.9937
▁73	-10.9938
▁(5	-10.9938
▁Fra	-10.9939
▁Dom	-10.9939
▁Siyah	-10.9943
▁pul	-10.9946
▁cüce	-10.9948
▁Milano	-10.9948
Ce	-10.9949
▁--	-10.9951
▁Güven	-10.9955
▁Britanyalı	-10.9957
cek	-10.9957
▁belki	-10.9958
▁Çerkes	-10.9963
▁Ron	-10.9965
▁milletvekilleri	-10.9965
▁yaygındır	-10.9966
▁evrim	-10.9969
şah	-10.9971
▁tamir	-10.9971
bot	-10.9971
▁başa	-10.9972
▁finansal	-10.9973
▁University	-10.9974
tica	-10.9975
▁eğitimine	-10.9976
lüğünü	-10.9978
▁Silah	-10.9978
▁Rod	-10.9978
zy	-10.9978
▁programlama	-10.9979
="131	-10.998
▁soyu	-10.9981
▁sağladığı	-10.9983
▁kesme	-10.9984
DE	-10.9985
▁kaz	-10.9986
▁tahmini	-10.9987
rad	-10.9992
▁Şampiyonu	-10.9993
▁sayılan	-10.9994
inus	-10.9996
▁kapak	-10.9997
▁Benzer	-10.9999
▁yeğeni	-10.9999
▁Kont	-11.0001
▁protokol	-11.0002
▁barındıran	-11.0003
ulu	-11.0006
▁sim	-11.0007
▁33.0	-11.001
▁psikoloji	-11.0011
▁Newton	-11.0011
▁veriler	-11.0012
abileceğini	-11.0013
▁seviyede	-11.0013
▁burun	-11.0016
▁güneydoğu	-11.0017
▁taban	-11.0018
▁Dönemi	-11.002
ağaç	-11.002
red	-11.0023
▁Jr	-11.0024
▁isminin	-11.0025
▁okun	-11.0028
▁konumunda	-11.0028
▁Your	-11.003
▁yetkisi	-11.003
▁yeterince	-11.0034
▁yarattı	-11.0034
▁videosu	-11.0036
▁yerden	-11.0037
▁Türklerin	-11.0038
onya	-11.0039
fon	-11.0039
▁Odası	-11.0041
▁şöyledir	-11.0042
▁kaptan	-11.0043
▁rekorunu	-11.0046
▁imparatoru	-11.0049
▁haftada	-11.0049
▁elçi	-11.005
▁Gümüşhane	-11.0051
▁atılan	-11.0052
▁çarpışma	-11.0052
▁Mara	-11.0054
ğında	-11.0054
▁pencere	-11.0057
▁Edebiyatı	-11.0059
▁komutan	-11.006
▁mezarı	-11.0061
▁koşullar	-11.0064
▁milyondan	-11.0064
▁Tah	-11.0065
lor	-11.0065
town	-11.0066
-13	-11.0067
▁71	-11.007
▁araştırmacı	-11.007
▁Wilson	-11.007
▁zinciri	-11.0071
▁pas	-11.0072
ug	-11.0073
▁Konstantin	-11.0074
▁110	-11.0075
▁vatandaşları	-11.0076
cc	-11.0081
▁bitti	-11.0082
▁bilme	-11.0083
▁sertifika	-11.0084
▁Francis	-11.0084
▁Michigan	-11.0085
▁galaksi	-11.0086
▁j	-11.0086
▁3-1	-11.0087
kut	-11.009
▁üzeri	-11.0091
▁bisiklet	-11.0091
▁Üsküdar	-11.0091
▁buğday	-11.0091
▁konak	-11.0093
▁Ob	-11.0093
▁olasılık	-11.0095
▁ani	-11.0095
▁Palm	-11.0096
▁yazılımı	-11.0097
▁ulaşma	-11.0097
lamaya	-11.0098
▁yükseklikte	-11.01
▁Pin	-11.0102
▁tra	-11.0103
▁silahlar	-11.0104
▁mermer	-11.0104
rop	-11.0104
▁bunlara	-11.0105
▁1916	-11.0107
yerek	-11.0108
▁aksiyon	-11.0113
lemek	-11.0119
▁güneybatı	-11.0121
▁Lan	-11.0121
▁Kin	-11.0122
âl	-11.0123
▁müttefik	-11.0123
ugh	-11.0127
▁Soy	-11.0128
▁1907	-11.0129
▁Abbas	-11.013
▁politikaları	-11.013
▁Müslümanlar	-11.0132
▁Jim	-11.0133
▁izler	-11.0134
▁Salih	-11.0134
▁duygusal	-11.0135
▁yatak	-11.0136
▁Inc	-11.0137
▁sahası	-11.0138
ive	-11.0139
▁seç	-11.0139
▁ayağı	-11.014
▁metrosu	-11.0141
wan	-11.0143
▁odası	-11.0144
▁desteğini	-11.0146
▁davran	-11.0147
▁sayım	-11.0148
▁2013-14	-11.0151
▁Gökçe	-11.0151
▁içeri	-11.0155
▁ayrıntılı	-11.0156
▁kolları	-11.0157
▁Batman	-11.016
emedi	-11.016
▁yüzme	-11.0161
▁İslâm	-11.0162
▁Adnan	-11.0162
ij	-11.0164
▁Serie	-11.0166
diye	-11.0166
idi	-11.0167
▁plaka	-11.0173
çılar	-11.0175
▁anlayış	-11.0175
▁sürülen	-11.0176
▁Dere	-11.0176
▁kızıl	-11.0177
laşır	-11.0178
▁Kaptan	-11.018
hon	-11.0181
▁kurumu	-11.0182
▁88	-11.0182
▁odak	-11.0183
▁PlayStation	-11.0184
▁Allen	-11.0186
▁grubunu	-11.0186
▁alırken	-11.0189
▁aldıkları	-11.0189
▁Laz	-11.019
iri	-11.019
▁Öykü	-11.019
dizi	-11.0192
diler	-11.0195
▁Bilgisayar	-11.0198
▁Linux	-11.02
▁yaptıktan	-11.0201
rid	-11.0201
▁Oxford	-11.0202
▁sağlama	-11.021
TS	-11.021
▁Bern	-11.0211
▁renkler	-11.0212
▁devri	-11.0212
▁Karşıyaka	-11.0213
▁şarkıların	-11.0216
▁geçmişte	-11.0218
dio	-11.0218
▁taşıyıcı	-11.0219
▁Gro	-11.0222
▁etmesini	-11.0222
▁resimleri	-11.0223
▁koleksiyonu	-11.0225
▁tahliye	-11.0225
▁başarısını	-11.0227
▁reform	-11.0227
şen	-11.0227
▁Kevin	-11.0228
▁özelliğini	-11.0228
▁seçil	-11.0228
▁şekildedir	-11.0229
▁enfeksiyon	-11.023
▁Dördüncü	-11.023
▁2012-13	-11.0233
▁yapmayı	-11.0235
▁Football	-11.0237
▁grubunda	-11.0238
400	-11.0238
▁temsilcileri	-11.0242
▁İslami	-11.0242
▁eklendi	-11.0243
▁Kağan	-11.0243
▁Metro	-11.0244
▁Filmde	-11.0247
▁heykeli	-11.0248
Yunanca	-11.0249
ğü	-11.0249
="272	-11.0251
▁yönlü	-11.0252
▁okur	-11.0256
▁Manastırı	-11.0257
▁durumun	-11.0258
▁belirtilmiştir	-11.0261
▁mevkiinde	-11.0261
▁demokratik	-11.0261
▁görevde	-11.0261
▁Listesi	-11.0263
▁meta	-11.0264
med	-11.0265
▁kala	-11.0265
▁sunar	-11.0265
meli	-11.0267
lıların	-11.027
▁kıyılarında	-11.0272
▁Yaşar	-11.0273
dışı	-11.0275
▁sen	-11.0275
stro	-11.0277
bes	-11.0278
▁0.6%	-11.0278
▁uzmanı	-11.0278
▁filme	-11.028
▁Zen	-11.028
cil	-11.0281
▁Büyükelçisi	-11.0282
▁ülkedeki	-11.0283
▁teklisi	-11.0284
ktör	-11.0285
ound	-11.0285
▁eksik	-11.0286
▁belirlenmesi	-11.0287
▁gözlemci	-11.0288
00'	-11.0289
sın	-11.0289
şit	-11.029
▁Def	-11.0293
▁sahibidir	-11.0294
▁geliştirmek	-11.0294
▁Street	-11.0297
▁Kariyeri	-11.03
▁1.2%	-11.0302
▁yazıt	-11.0302
llo	-11.0303
▁füze	-11.0304
▁Kö	-11.0306
▁3-0	-11.0307
phe	-11.0309
▁Ross	-11.0311
▁sanal	-11.0311
▁İnönü	-11.0314
▁bakıldığında	-11.0314
▁vücudun	-11.0315
▁İdare	-11.0319
▁Fırat	-11.0319
▁Saldırı	-11.032
uch	-11.032
▁şirketinin	-11.0321
gerçekleştirdiği	-11.0322
leştirilmiştir	-11.0323
▁mineral	-11.0323
onu	-11.0325
4.0%	-11.0325
▁1906	-11.0327
▁Power	-11.0332
▁ham	-11.0332
leşmesi	-11.0333
sten	-11.0333
▁kredi	-11.0334
enko	-11.0336
▁filosu	-11.0336
all	-11.0339
▁by	-11.034
▁unsurları	-11.0342
▁birbirleriyle	-11.0345
laştı	-11.0346
▁alanının	-11.0349
▁çekilmiş	-11.0349
▁çember	-11.0349
▁rejim	-11.0349
NA	-11.0354
="203	-11.0355
▁pratik	-11.0355
▁malzemeler	-11.0357
▁Ağır	-11.036
▁alçak	-11.0363
▁uygulamaya	-11.0363
▁çizgisi	-11.0363
▁Artık	-11.0366
▁Gençlerbirliği	-11.0367
▁House	-11.0368
▁ağzı	-11.037
rio	-11.0372
include	-11.0373
▁bürokrat	-11.0373
▁İletişim	-11.0373
▁kritik	-11.0373
▁haberi	-11.0377
▁Einstein	-11.0377
▁açıklanmıştır	-11.0378
▁tünel	-11.0379
▁filtre	-11.0379
▁hâline	-11.0379
▁kısmının	-11.038
▁oyuncuların	-11.038
▁düşünme	-11.038
nova	-11.0383
▁yardımcılığı	-11.0384
▁Mali	-11.0387
▁Evren	-11.0387
▁yolunu	-11.0387
▁üretildi	-11.0389
▁vuruş	-11.039
▁hastalıklar	-11.039
ش	-11.039
▁Good	-11.0391
▁oluşturulmuş	-11.0393
▁yetkilileri	-11.0395
yazı	-11.0396
▁aktris	-11.0396
▁Arı	-11.0401
▁günümüzdeki	-11.0401
▁Mun	-11.0401
▁Öğretmen	-11.0402
▁duyduğu	-11.0403
yâ	-11.0407
▁katliam	-11.0408
git	-11.0409
▁İtalyanca	-11.0413
▁tanımlama	-11.0414
▁örtü	-11.0415
▁çıkmaktadır	-11.0417
▁Yara	-11.0419
▁atar	-11.0421
rich	-11.0421
lé	-11.0421
▁Jun	-11.0422
Yo	-11.0422
▁döngü	-11.0424
▁düzensiz	-11.0424
▁Afyonkarahisar	-11.0425
▁Radio	-11.0425
▁çizim	-11.0426
▁organları	-11.0426
▁soyundan	-11.0427
ira	-11.0428
yıl	-11.0428
▁kullanıcıların	-11.0429
▁çıkarmıştır	-11.0429
▁ailesine	-11.0432
▁kuzeybatı	-11.0432
▁Kızılderili	-11.0435
house	-11.0436
zlar	-11.0436
lli	-11.0437
▁oynamış	-11.0437
▁1896	-11.0438
▁Güreş	-11.0439
▁Stefan	-11.0439
▁misafir	-11.0444
▁Char	-11.0446
▁Yardımcı	-11.0446
▁oynar	-11.0446
▁Center	-11.0449
▁geçirmiştir	-11.045
▁sunulmuştur	-11.045
▁tanıtım	-11.0452
gna	-11.0452
SC	-11.0452
▁renkleri	-11.0456
▁çiftlik	-11.0456
ilerek	-11.0458
▁projeleri	-11.0458
▁kabilesi	-11.046
▁Nijerya	-11.0464
▁Cin	-11.0467
▁işareti	-11.047
▁yerler	-11.0471
▁Festival	-11.0472
ojen	-11.0473
▁con	-11.0473
▁diplomat	-11.0474
▁kaybetme	-11.0475
fil	-11.0476
▁Heinrich	-11.048
yak	-11.0484
▁denklem	-11.0485
▁çözül	-11.0486
▁dokuzuncu	-11.0486
▁hükümeti	-11.0488
▁terör	-11.049
▁Sahne	-11.049
▁zorundadır	-11.0491
▁akciğer	-11.0492
shire	-11.0494
▁sıralarda	-11.0494
▁Eyalet	-11.0497
▁(6	-11.0498
▁koleksiyon	-11.0498
ena	-11.0498
▁alışveriş	-11.0499
▁verilebilir	-11.05
göl	-11.05
▁Bizanslılar	-11.0501
hre	-11.0503
▁içerisindeki	-11.0504
▁nişan	-11.0507
▁Porto	-11.051
▁süresince	-11.0512
▁gelişmesi	-11.0512
▁söyle	-11.0513
▁vur	-11.0515
▁ed	-11.0515
▁1986'	-11.0516
▁meşru	-11.0516
Ru	-11.0517
=48	-11.052
vit	-11.052
bağ	-11.0522
▁cep	-11.0523
▁iOS	-11.0524
▁yüzyıllar	-11.0524
pha	-11.0526
▁günlerde	-11.0527
▁Cra	-11.0528
▁elinden	-11.0529
▁Georgia	-11.0532
▁muhalif	-11.0533
▁DJ	-11.0535
▁oluşturulması	-11.0536
▁hassas	-11.0539
My	-11.0539
▁ihanet	-11.054
mayan	-11.0541
▁sığın	-11.0541
▁Devrim	-11.0543
▁Af	-11.0543
▁IP	-11.0544
▁toplamı	-11.0545
ore	-11.0547
▁Dream	-11.0547
▁yaparlar	-11.0548
▁Yemen	-11.0551
▁zırh	-11.0551
▁tanrısı	-11.0552
▁1902	-11.0552
▁elbise	-11.0552
▁Şehzade	-11.0553
▁Ovası	-11.0553
▁şarkısının	-11.0554
▁Bursaspor	-11.0554
ppe	-11.0555
dük	-11.0555
▁ray	-11.0556
▁Hamburg	-11.0559
Hal	-11.056
▁1982'	-11.0561
▁sunucusu	-11.0563
▁Universe	-11.0565
▁Network	-11.0565
ulmuş	-11.0569
▁önderliğinde	-11.057
▁Doğa	-11.0571
▁açıklar	-11.0572
▁cezasına	-11.0573
had	-11.0574
sindeki	-11.0575
▁Çekoslovakya	-11.0575
▁evlenme	-11.0576
▁birine	-11.0576
▁0.3%	-11.0577
nam	-11.0578
▁Cre	-11.0578
▁pahalı	-11.0583
▁Tayland	-11.0584
▁sur	-11.0584
TA	-11.0584
▁1979'	-11.0586
▁saldırılar	-11.0586
▁değerler	-11.0586
Un	-11.0588
▁duyma	-11.0588
▁uyu	-11.0588
▁endüstriyel	-11.0589
▁hukuku	-11.0589
▁yapacak	-11.0589
▁Kolordu	-11.0589
▁sonuçlanan	-11.0592
▁Atlas	-11.0592
▁Got	-11.0592
▁Hitit	-11.0595
▁mantar	-11.0596
▁fırsatı	-11.0597
▁felaket	-11.0601
EN	-11.0604
abildiği	-11.0606
▁edilmesini	-11.0606
▁özgürlüğü	-11.0608
▁duyuruldu	-11.0608
▁Ona	-11.0609
▁kanı	-11.0609
▁planlanan	-11.061
RT	-11.0615
oth	-11.0616
▁satışı	-11.0618
ith	-11.0618
▁görevlerini	-11.0621
ters	-11.0622
▁geliştir	-11.0623
▁Fla	-11.0625
leş	-11.0626
▁balina	-11.0627
▁süredir	-11.0627
▁öyküsü	-11.0628
daha	-11.0629
our	-11.0629
▁Dönemin	-11.063
=245	-11.0631
▁temsilci	-11.0632
▁mühendis	-11.0632
▁95	-11.0632
beyaz	-11.0634
▁tarihçiler	-11.0635
▁Yasası	-11.0637
▁Hen	-11.0641
="245	-11.0642
▁olunca	-11.0644
▁Yüksel	-11.0645
▁memur	-11.0646
▁kariyer	-11.0648
▁görevler	-11.0649
▁öldürdü	-11.0649
▁teması	-11.0649
▁mini	-11.0655
ew	-11.0656
▁hücreleri	-11.0656
▁Pol	-11.0657
▁Bah	-11.0657
imli	-11.0658
▁biz	-11.0662
rif	-11.0665
▁inşaatı	-11.0667
▁dalı	-11.0667
▁Minnesota	-11.0668
tte	-11.0668
hm	-11.0668
▁tanımlanmıştır	-11.0671
▁uçağın	-11.0672
▁turnuvaya	-11.0673
less	-11.0674
qu	-11.0678
▁tercüme	-11.068
▁kuzeydoğu	-11.0681
▁otur	-11.0682
▁Hil	-11.0683
▁Sara	-11.0683
EM	-11.0686
▁alanın	-11.0689
▁tarla	-11.069
▁Anayasası	-11.0697
▁Arma	-11.0698
▁Ardahan	-11.0699
▁müzesi	-11.0703
▁güvenilir	-11.0705
▁belgeler	-11.0705
▁müsabakaları	-11.0707
Sen	-11.0708
▁dernek	-11.0714
çay	-11.0719
▁yürü	-11.0724
tip	-11.0727
▁işlevi	-11.0728
▁isyanı	-11.073
şer	-11.073
▁halini	-11.0732
Sal	-11.0733
On	-11.0734
▁yöneten	-11.0735
▁kalesi	-11.0736
▁ordusuna	-11.0736
▁olmaz	-11.0736
▁Dead	-11.0741
▁eşliğinde	-11.0743
doğum	-11.0744
maları	-11.0745
rdi	-11.0746
▁nefret	-11.075
▁kedi	-11.0751
pat	-11.0753
etik	-11.0753
▁Tunceli	-11.0754
▁YouTube	-11.0754
çık	-11.0757
▁üretil	-11.0757
▁yazarın	-11.076
▁sendika	-11.0761
▁ispat	-11.0761
▁modeller	-11.0761
▁Tarsus	-11.0761
▁yöneticileri	-11.0763
John	-11.0763
▁egemenliği	-11.0765
▁Nick	-11.0765
▁taç	-11.0767
▁Qua	-11.0767
▁çağrı	-11.0768
▁Miz	-11.0769
▁kuvvetli	-11.077
▁nöro	-11.077
▁don	-11.0773
▁Song	-11.0774
▁Bahçe	-11.0776
▁aşaması	-11.0777
▁muhafaza	-11.0778
▁fakir	-11.0779
▁yönelim	-11.078
▁tasarlanan	-11.078
▁Tab	-11.0782
▁çete	-11.0783
hra	-11.0783
▁paketi	-11.0783
▁iri	-11.0785
▁serinin	-11.0786
▁Kişi	-11.0789
▁Ul	-11.079
▁pasaport	-11.079
▁Kitabı	-11.0792
▁Çinli	-11.0792
MP	-11.0793
▁koro	-11.0793
kapı	-11.0794
▁kasabadır	-11.0795
▁Olay	-11.0797
▁istatistik	-11.0797
▁ribaund	-11.0797
▁sulama	-11.0798
ılıp	-11.0801
▁kabine	-11.0802
omi	-11.0802
▁Kaynak	-11.0803
▁okulda	-11.0805
▁sar	-11.0805
▁Bru	-11.0805
▁Halen	-11.0806
▁kuşak	-11.0807
eng	-11.0808
▁şehrine	-11.0808
▁ho	-11.0809
▁Buz	-11.081
▁restoran	-11.081
▁geçirmiş	-11.0814
▁kapan	-11.0814
▁tri	-11.0814
▁İlişkiler	-11.0814
▁sürdürmüştür	-11.0817
rdı	-11.0817
▁ç	-11.0818
▁Şirketin	-11.0822
▁Erdem	-11.0823
lemiş	-11.0824
▁buradaki	-11.0824
▁Miller	-11.0826
▁faaliyetler	-11.0827
onia	-11.0828
▁Hikmet	-11.0829
▁bucaktır	-11.083
Ev	-11.0833
▁Venezuela	-11.0835
▁mekân	-11.0835
▁tanınmıştır	-11.0835
▁Hak	-11.0837
▁dilde	-11.0837
▁kahramanı	-11.0838
▁Biz	-11.0838
▁şunları	-11.084
▁Zeki	-11.084
▁Uğur	-11.084
▁eki	-11.084
▁sunmaktadır	-11.0842
▁Kadıköy	-11.0842
▁Hav	-11.0843
▁Mücadele	-11.0847
▁Adolf	-11.0849
▁hastane	-11.085
SI	-11.0851
metre	-11.0851
▁Bakanlar	-11.0853
▁branş	-11.0853
▁ekledi	-11.0856
ısı	-11.0856
=120	-11.0858
▁sakin	-11.0858
▁çekilme	-11.086
▁İzmit	-11.086
▁icat	-11.0861
▁bat	-11.0862
Ab	-11.0862
▁bozulma	-11.0866
▁Arsenal	-11.0866
▁sektöründe	-11.0868
▁Mimarlık	-11.0869
izmin	-11.0869
lerarası	-11.0871
▁Chelsea	-11.0872
300	-11.0873
▁yürütülmektedir	-11.0873
▁Ap	-11.0873
▁sağlayacak	-11.0874
▁oyu	-11.0877
tav	-11.0879
▁göstermiş	-11.0879
▁olasılığı	-11.0881
=229	-11.0882
▁Oda	-11.0884
▁Babil	-11.0884
▁boşluk	-11.0888
▁kayda	-11.0889
▁çevrili	-11.089
▁Orijinal	-11.0893
▁10.000	-11.0894
▁Kolombiya	-11.0894
▁berabere	-11.0895
▁dinamik	-11.0895
▁üretilmiştir	-11.0896
▁Soğuk	-11.0896
▁şifre	-11.0897
▁ten	-11.0897
Es	-11.0898
▁mutlu	-11.0898
▁Bilimleri	-11.0899
▁Jacques	-11.0899
▁1500	-11.09
▁Vir	-11.0902
▁oranları	-11.0903
▁Felsefe	-11.0904
Va	-11.0906
▁yaklaşımı	-11.0907
▁Prag	-11.0909
▁yönet	-11.0909
At	-11.0909
amayan	-11.0912
▁hü	-11.0913
▁Beni	-11.0915
▁Akça	-11.0915
▁sırayı	-11.0916
▁97	-11.092
▁komplo	-11.0923
ani	-11.0923
▁yayılan	-11.0924
▁1904	-11.0925
Per	-11.0926
IP	-11.0926
▁uyarlaması	-11.0926
▁Kartaca	-11.0927
▁eri	-11.0927
▁78	-11.0929
▁oluşturmuştur	-11.0929
▁olmuşlardır	-11.0931
▁sür	-11.0932
▁eklenmiştir	-11.0933
▁soyut	-11.0933
▁ayının	-11.0934
▁okulun	-11.0936
▁Op	-11.0937
▁artar	-11.0939
▁çalışmalarında	-11.0939
▁lige	-11.0939
▁Cena	-11.0942
▁karşısına	-11.0942
▁Mobile	-11.0943
▁Tsu	-11.0945
=47	-11.0946
▁dönüşür	-11.0947
▁sürece	-11.0947
▁tanıtıldı	-11.095
▁Bina	-11.095
▁liberal	-11.0951
Eski	-11.0951
▁Tok	-11.0952
▁ödülüne	-11.0954
▁Bağımsız	-11.0959
▁geçim	-11.096
▁Kav	-11.096
="223	-11.096
itler	-11.0961
▁dağılması	-11.0962
▁Kartal	-11.0964
▁ihraç	-11.0966
▁bağımlı	-11.0967
▁sınıflandırma	-11.0968
▁seferi	-11.0968
hard	-11.097
▁takdirde	-11.097
▁koyun	-11.097
roz	-11.097
▁eğri	-11.0971
▁mektubu	-11.0973
uka	-11.0973
▁dönüm	-11.0974
▁kubbe	-11.0975
▁Gabriel	-11.0976
▁manga	-11.0979
non	-11.0979
▁vizyona	-11.0979
Tur	-11.0979
▁üyelerinden	-11.0981
lir	-11.0983
▁almıştı	-11.0983
cre	-11.0984
▁korudu	-11.0984
):	-11.0984
▁Çankırı	-11.0985
▁ayrım	-11.0986
▁köylü	-11.0987
Sp	-11.0987
▁seviyesinde	-11.0987
▁peygamber	-11.0987
▁görünüm	-11.0988
▁cadde	-11.0988
ebe	-11.0988
▁uçakları	-11.0989
Ber	-11.099
▁okuyucu	-11.0992
▁yayına	-11.0992
▁Kimya	-11.0993
▁Cur	-11.0994
▁tabanı	-11.0994
▁İkili	-11.0994
anti	-11.0995
▁önemini	-11.0996
▁bileşenleri	-11.0997
▁1864	-11.0998
nen	-11.1001
▁futbola	-11.1003
▁askerlerin	-11.1004
▁kuralı	-11.1006
▁temeli	-11.1007
▁Düzce	-11.1009
▁ucuz	-11.1009
▁çıkışlı	-11.101
▁biçimleri	-11.1011
▁kolej	-11.1012
▁ölmüş	-11.1012
▁başarılar	-11.1013
▁formül	-11.1013
▁ışın	-11.1014
▁geliş	-11.1015
riz	-11.1016
trik	-11.1016
eus	-11.1018
▁durumdadır	-11.102
▁130	-11.1022
demir	-11.1022
▁metro	-11.1022
boy	-11.1022
▁cemaat	-11.1023
yeceğini	-11.1023
para	-11.1024
▁kurumları	-11.1026
▁Dön	-11.1026
▁Avusturyalı	-11.1027
ndi	-11.1027
Mil	-11.1027
▁Profesör	-11.1031
▁tutum	-11.1033
▁Zafer	-11.1034
Ana	-11.1035
tam	-11.1035
▁Open	-11.1036
▁yaprak	-11.1037
▁artı	-11.1037
▁genişliği	-11.1039
▁birliklerinin	-11.104
▁topraklarını	-11.1042
▁yapıların	-11.1043
▁gittikçe	-11.1043
gol	-11.1044
▁Gör	-11.1044
▁Pekin	-11.1045
▁Said	-11.1045
▁yolla	-11.1047
▁kapasite	-11.1048
▁Frankfurt	-11.1049
▁bölümünden	-11.1054
mey	-11.1054
ois	-11.1055
▁tat	-11.1057
▁İvan	-11.1058
▁devletler	-11.1061
ydü	-11.1061
▁Mekke	-11.1062
ates	-11.1063
▁Ermeniler	-11.1064
▁görüşleri	-11.1067
▁yuvarlak	-11.1068
▁Marc	-11.1069
vey	-11.1071
▁go	-11.1072
▁düzlem	-11.1072
▁ettirdi	-11.1075
▁sitesinde	-11.1075
▁Cro	-11.1076
▁doğrusal	-11.1076
ب	-11.1078
▁İsti	-11.1078
lerindendir	-11.108
▁şeklindeki	-11.1081
600	-11.1082
▁uy	-11.1083
▁96	-11.1084
eira	-11.1087
layacak	-11.1089
▁Boğaz	-11.1091
ave	-11.1092
ibe	-11.1092
hur	-11.1093
kra	-11.1094
▁Shu	-11.1096
▁tutma	-11.1098
liğinde	-11.1099
▁Isparta	-11.11
▁çikolata	-11.11
▁oynuyor	-11.11
▁Yüzyıl	-11.11
▁desteğiyle	-11.1102
▁rivayet	-11.1103
▁Ödül	-11.1107
▁1-1	-11.1108
gua	-11.1111
▁Kulüpler	-11.1112
zı	-11.1112
▁bırak	-11.1113
▁içe	-11.1113
▁kural	-11.1113
▁birincil	-11.1114
gram	-11.1115
▁evrensel	-11.1115
▁evre	-11.1115
cen	-11.1115
▁Bryan	-11.1116
▁göğüs	-11.1119
▁federasyon	-11.1119
▁Vit	-11.1119
▁koltuk	-11.112
▁Hakkı	-11.112
▁dönerek	-11.1122
vaz	-11.1122
▁arazisi	-11.1122
▁eylemleri	-11.1125
▁eserlerini	-11.1125
▁yaşı	-11.1127
ırlar	-11.1127
meleri	-11.1127
▁buluş	-11.1127
mura	-11.1131
hei	-11.1132
ical	-11.1136
▁Bavyera	-11.1138
▁çukur	-11.1138
▁savaştan	-11.1139
▁anlamıyla	-11.1139
▁Bes	-11.1141
▁Are	-11.1142
üre	-11.1143
meden	-11.1144
▁itiraz	-11.1145
▁takiben	-11.1145
▁Bernard	-11.115
▁olimpiyat	-11.1151
▁Farklı	-11.1151
▁vasıtasıyla	-11.1152
ğinde	-11.1153
▁rolünde	-11.1154
▁giril	-11.1155
not	-11.1157
▁bes	-11.1157
▁ring	-11.1161
▁desen	-11.1162
▁kurtarmak	-11.1164
▁Ziraat	-11.1166
▁duyar	-11.1168
▁bölgeden	-11.1169
▁turnuvası	-11.117
▁durma	-11.1174
▁kurumlar	-11.1177
▁gündeme	-11.1178
luğun	-11.1178
▁çağrıldı	-11.118
▁mayın	-11.118
Am	-11.1182
[	-11.1182
▁Ajansı	-11.1183
▁yönetimine	-11.1185
▁mimarlık	-11.1187
erler	-11.1187
▁arz	-11.1188
bia	-11.1189
▁ışığı	-11.119
</	-11.1191
ym	-11.1192
liyor	-11.1194
▁1944'	-11.1194
▁tele	-11.1194
▁derleme	-11.1194
▁öngörü	-11.1197
▁sultan	-11.1198
▁sayımlarına	-11.1199
▁Rad	-11.1202
▁Alanı	-11.1204
▁fare	-11.1204
▁figür	-11.1205
▁Thor	-11.1205
▁yapılabilir	-11.1205
▁Usta	-11.1207
▁günleri	-11.1207
▁Hayatı	-11.1208
▁efekt	-11.1209
▁Wei	-11.1212
▁yürütme	-11.1214
▁gitmesi	-11.1216
▁bölümüne	-11.122
▁sağlanır	-11.1221
▁beraberlik	-11.1223
▁1974'	-11.1224
▁geçirme	-11.1228
▁Hırvat	-11.1229
▁sıralaması	-11.1231
▁yaşadıkları	-11.1232
▁Uruguay	-11.1235
▁Jacob	-11.1235
mesiyle	-11.1235
▁Prenses	-11.1236
gro	-11.124
▁gönderdiği	-11.1242
▁bilen	-11.1242
back	-11.1243
och	-11.1244
▁Maya	-11.1245
ted	-11.1246
▁olanlar	-11.1247
▁tüccar	-11.1249
▁Kaz	-11.125
▁mekaniği	-11.1254
ér	-11.1256
▁rastlanır	-11.1258
▁maddelerin	-11.1258
▁söyleyerek	-11.1261
▁Samuel	-11.1261
▁Senato	-11.1261
lığının	-11.1262
▁anlaşılmaktadır	-11.1262
▁yemeği	-11.1267
▁Bab	-11.1267
▁yazarları	-11.1269
▁acil	-11.1269
▁başkanlığında	-11.127
Wi	-11.1271
▁temelini	-11.1272
suna	-11.1275
phi	-11.1275
▁çıkarılmıştır	-11.1277
AD	-11.1279
▁Boğaziçi	-11.128
▁RNA	-11.1281
▁Jay	-11.1284
▁Türkçede	-11.1285
leyip	-11.1285
▁tahtta	-11.1287
oc	-11.1288
anlar	-11.1288
▁Sümer	-11.1288
▁1900	-11.129
▁teknikleri	-11.1291
▁askerlik	-11.1291
▁görevlendirildi	-11.1291
▁sok	-11.1292
Yu	-11.1292
▁Slovenya	-11.1292
▁karşılaşmasında	-11.1294
▁kırk	-11.1295
▁zehir	-11.1298
▁merdiven	-11.13
▁Bingöl	-11.13
light	-11.1301
5.000	-11.1301
Bay	-11.1302
▁gelenekleri	-11.1303
▁karakterlerin	-11.1304
▁Schleswig	-11.1306
▁azınlık	-11.1307
RA	-11.1307
▁sancak	-11.1308
▁Yas	-11.1308
▁sadık	-11.131
▁kesimi	-11.1311
▁yüksektir	-11.1311
▁ürettiği	-11.1312
▁endüstrisi	-11.1312
▁geçirildi	-11.1313
▁hoca	-11.1314
▁belirten	-11.1315
▁kaybetmiş	-11.1316
▁Sky	-11.1316
▁imkân	-11.1317
▁81	-11.1319
▁Tekirdağ	-11.1319
nom	-11.132
▁Teşkilatı	-11.1324
▁şarkıdır	-11.1325
▁geçit	-11.1327
▁ihtimali	-11.133
="139	-11.1333
▁Qui	-11.1334
▁ölmesi	-11.1334
▁oranla	-11.1334
▁arşiv	-11.1337
▁düşmanı	-11.1339
dol	-11.1339
▁Futbola	-11.134
sper	-11.134
▁izni	-11.1341
▁fikrini	-11.1343
▁Girl	-11.1345
▁HD	-11.1348
▁sonuçlarına	-11.1348
▁diz	-11.1354
▁dinî	-11.1354
▁öğrenme	-11.1355
▁albümünden	-11.1355
lıyordu	-11.1355
▁maçlarında	-11.1357
▁gününde	-11.1357
▁sahada	-11.1359
▁maçlarda	-11.1359
▁Bush	-11.1359
▁isten	-11.1362
▁izleme	-11.1362
▁yerleşmiş	-11.1362
▁Karabağ	-11.1362
etta	-11.1364
▁...	-11.1367
▁heyeti	-11.1368
▁konusundaki	-11.137
▁Toplum	-11.1371
▁Floransa	-11.1372
▁Görev	-11.1373
="29	-11.1375
kawa	-11.1377
▁Sak	-11.138
▁almayı	-11.138
BS	-11.1381
▁kupayı	-11.1383
▁görüntüleri	-11.1384
▁belirsiz	-11.1384
▁hafıza	-11.1385
=272	-11.1386
laşan	-11.1387
▁salgı	-11.1387
war	-11.1388
▁Lüksemburg	-11.139
▁romantik	-11.139
Holstein	-11.1392
dığında	-11.1392
▁karşıt	-11.1392
▁Lang	-11.1396
▁1985'	-11.1396
▁Anderson	-11.14
▁foto	-11.14
▁sayısal	-11.14
▁uzakta	-11.1405
▁yolculuğu	-11.1405
▁cenaze	-11.1405
▁hormon	-11.1405
▁uzatma	-11.1405
▁denetim	-11.1407
aceae	-11.1409
▁Light	-11.1409
▁radikal	-11.1411
▁Victor	-11.1412
▁problemi	-11.1412
▁toplar	-11.1412
▁sınırında	-11.1414
▁metredir	-11.1417
▁yayımladığı	-11.1418
▁Tay	-11.1419
Güney	-11.1421
Ça	-11.1421
gın	-11.1424
▁Amsterdam	-11.1424
▁bahseder	-11.1424
ito	-11.1427
▁İranlı	-11.1428
▁giyme	-11.1431
▁tartışıl	-11.1432
▁sürücü	-11.1436
▁yüzyıllarda	-11.1442
ão	-11.1443
▁oluşturuldu	-11.1444
▁mezhebi	-11.1444
▁Kil	-11.1445
▁Aş	-11.1446
hn	-11.1447
uba	-11.1447
▁isimdir	-11.1448
="47	-11.1449
▁tabakası	-11.1449
▁hazırlanmış	-11.145
▁adanın	-11.145
▁topraklarının	-11.145
▁başlı	-11.1451
▁sürdüğü	-11.1452
kuş	-11.1455
▁Davis	-11.1456
kum	-11.1456
▁kızları	-11.1457
▁elemanları	-11.1462
▁kurarak	-11.1464
▁tetik	-11.1466
▁Fan	-11.1468
▁Mahkeme	-11.1469
▁durumunu	-11.1469
IM	-11.1471
▁dinsel	-11.1472
▁Maden	-11.1474
section	-11.1474
▁sahipleri	-11.1477
-7	-11.1477
▁yapıp	-11.1477
www	-11.1477
▁Bayezid	-11.1477
▁Müziği	-11.1477
▁taraftarları	-11.1478
Ze	-11.1479
▁adası	-11.1479
▁yoksa	-11.1479
cent	-11.1483
▁süs	-11.1484
▁Dun	-11.1489
▁davranışları	-11.1492
▁ettikten	-11.1492
▁seks	-11.1493
▁Pel	-11.1493
▁Moğollar	-11.1494
▁kaldırma	-11.1495
▁üzüm	-11.1495
▁Island	-11.1496
▁Luis	-11.1496
▁Noel	-11.1496
▁Columbia	-11.1497
▁keşfi	-11.1497
▁çözümü	-11.1498
▁Way	-11.1499
oli	-11.1501
▁1918'	-11.1502
▁Mira	-11.1503
▁çalışmalarının	-11.1504
▁bağlandı	-11.1504
SP	-11.1505
▁1978'	-11.1506
posta	-11.1507
▁%5	-11.1508
▁sağlanması	-11.1509
2)	-11.151
özellikle	-11.1511
▁suretiyle	-11.1511
▁koruyucu	-11.1511
▁Köln	-11.1511
▁yaşa	-11.1512
▁zamandan	-11.1513
▁Gençler	-11.1514
▁alanındaki	-11.1514
▁komutasında	-11.1515
cle	-11.1518
▁başlanan	-11.1519
sunun	-11.1519
▁aydın	-11.1519
▁Ayşe	-11.1521
▁yatay	-11.1524
▁solunum	-11.1524
▁Türkmenistan	-11.1525
▁basketbolcu	-11.1527
▁State	-11.1527
▁Standart	-11.1531
▁monarşi	-11.1531
▁oturum	-11.1532
▁dayanıklı	-11.1532
▁Sco	-11.1533
▁Lor	-11.1534
▁zamanki	-11.1534
▁paylaştı	-11.1534
▁asistan	-11.1536
▁kullanıma	-11.1537
▁İçin	-11.1541
▁Sudan	-11.1541
▁ateşi	-11.1542
gno	-11.1544
▁yayınlanması	-11.1544
▁Celal	-11.1544
▁Kiev	-11.1545
formasyon	-11.1547
▁Yaşam	-11.1547
▁anket	-11.1549
bah	-11.155
hay	-11.155
▁Sınır	-11.1551
▁1880	-11.1553
▁serisinde	-11.1553
▁sentez	-11.1553
▁kullanıl	-11.1554
▁Turnuvası	-11.1556
▁çıplak	-11.1557
▁hesabı	-11.1558
▁inşası	-11.1558
▁1983'	-11.156
▁defnedildi	-11.156
▁etmesine	-11.1562
▁dağlar	-11.1563
uncu	-11.1563
▁felsefi	-11.1564
ill	-11.1564
▁Protestan	-11.1565
="275	-11.1565
▁Programı	-11.1565
AK	-11.1565
Aşk	-11.1565
▁yolda	-11.1567
▁içer	-11.1567
▁kulesi	-11.1567
▁öldürme	-11.1569
▁mar	-11.157
▁ilgilidir	-11.1571
yacağı	-11.1571
wo	-11.1571
▁lif	-11.1572
▁Dis	-11.1573
▁üssü	-11.1574
▁kalem	-11.1575
▁doğası	-11.1576
“	-11.1578
▁İsmet	-11.1579
▁Ang	-11.1581
▁Tü	-11.1582
▁olmaktan	-11.1583
▁Media	-11.1583
▁binanın	-11.1585
▁koy	-11.1587
▁grupların	-11.1588
▁By	-11.1589
▁sakinleri	-11.1589
▁gözden	-11.159
▁gerçeği	-11.1591
=29	-11.1592
▁yaşan	-11.1594
alist	-11.1595
▁içeriyordu	-11.1596
▁Hamilton	-11.1598
▁Ele	-11.1599
▁sürme	-11.16
▁ayna	-11.1602
ime	-11.1604
chen	-11.1609
▁eksen	-11.1609
▁Jar	-11.161
▁içki	-11.1611
▁Bitlis	-11.1612
▁Çince	-11.1613
bik	-11.1615
▁yaralandı	-11.1618
▁bununla	-11.1619
rian	-11.1619
▁ikiz	-11.1619
ère	-11.1621
▁Hükûmet	-11.1622
▁tersine	-11.1624
▁sel	-11.1625
▁katılması	-11.1627
▁yükselme	-11.1627
▁İnan	-11.1633
batı	-11.1633
▁Ir	-11.1633
▁Jen	-11.1633
şam	-11.1634
▁yapısal	-11.1635
hy	-11.1635
▁programlar	-11.1636
▁açılmış	-11.1636
▁Muhafız	-11.1639
▁ilkokul	-11.1641
stin	-11.1644
▁kurak	-11.1644
▁ülkesinin	-11.1644
▁Uzak	-11.1645
▁tutmak	-11.1646
Bal	-11.1648
zler	-11.1648
▁bütçe	-11.1648
▁zamanların	-11.165
lev	-11.1651
▁çal	-11.1652
ique	-11.1655
▁2009-10	-11.1655
▁yayınlamıştır	-11.1656
▁Kemer	-11.1658
▁düzgün	-11.1659
col	-11.166
▁AS	-11.166
▁sürmektedir	-11.1661
vre	-11.1664
▁yapımlar	-11.1664
enburg	-11.1664
tiv	-11.1666
enberg	-11.1667
ets	-11.1668
vol	-11.1669
▁1941'	-11.1669
▁Avustralyalı	-11.167
▁Kuşatması	-11.1672
gazi	-11.1674
rs	-11.1676
Hay	-11.1676
abi	-11.168
-11	-11.1681
▁Kah	-11.1682
-0	-11.1683
AF	-11.1684
▁savundu	-11.1685
çuk	-11.1685
ıç	-11.1685
ografi	-11.1685
▁entegre	-11.1685
▁Valiliği	-11.1686
▁Genelde	-11.1687
▁olmadı	-11.1688
rov	-11.1689
▁derinlik	-11.169
▁kuzeni	-11.1692
▁Ryan	-11.1692
▁Onlar	-11.1695
▁kiralandı	-11.1695
▁taşıdığı	-11.1697
▁tartışmalar	-11.1698
İng	-11.1698
▁işlemler	-11.1699
▁formayı	-11.1702
▁ulaşmak	-11.1703
EP	-11.1704
▁hanedan	-11.1705
▁Malezya	-11.1706
▁desteklemek	-11.1709
▁Dra	-11.1709
▁hamile	-11.171
▁gerektirir	-11.1711
▁Kongo	-11.1712
oku	-11.1712
▁Kut	-11.1714
▁Blue	-11.1716
iğin	-11.1716
▁Tiflis	-11.1719
▁elektromanyetik	-11.1719
▁yaptığını	-11.172
▁1903	-11.1724
BC	-11.1724
▁inancı	-11.1725
▁Hatun	-11.1727
▁büyüyen	-11.1728
eva	-11.1729
▁tura	-11.1729
TC	-11.173
ough	-11.1735
▁kurdular	-11.1736
▁Sem	-11.1737
▁seslendirdiği	-11.1737
oo	-11.1737
nat	-11.1738
▁Efes	-11.1739
▁Association	-11.174
▁etkileyen	-11.1742
▁eşitlik	-11.1744
▁ahlak	-11.1746
▁kaçan	-11.1747
▁öldürmek	-11.1748
ille	-11.1749
▁Uygulama	-11.175
İn	-11.1752
▁noktasında	-11.1753
▁düzenlenmiş	-11.1754
▁eşdeğer	-11.1754
▁gizlice	-11.1754
▁Gazze	-11.1755
▁3000	-11.1757
iano	-11.1757
▁Justin	-11.1758
▁gereklidir	-11.1763
▁tümü	-11.1766
▁İnce	-11.1767
Gün	-11.1768
▁vazgeç	-11.1768
▁kazanma	-11.177
▁Wall	-11.177
▁alıyordu	-11.1777
Bel	-11.1779
zim	-11.178
▁kaplama	-11.178
▁anlatılır	-11.1781
rî	-11.1781
AT	-11.1785
▁Dark	-11.1786
ess	-11.1787
▁okula	-11.1788
gö	-11.1788
▁Abdül	-11.1789
▁kalitesi	-11.1789
="274	-11.1789
▁ivme	-11.179
▁kampanyası	-11.1792
▁moleküler	-11.1792
▁turnuvanın	-11.1792
▁kompleks	-11.1793
▁kurtarma	-11.1797
▁İbranice	-11.1798
▁güneye	-11.1798
▁ekipman	-11.18
▁Ertuğrul	-11.18
▁edilmesine	-11.1801
▁Hükümet	-11.1801
▁sığ	-11.1803
▁Basın	-11.1805
▁Sezonun	-11.1805
▁Phil	-11.1807
ς	-11.1808
▁kavuştu	-11.1808
▁hop	-11.1811
▁Deresi	-11.1811
▁deyişle	-11.1812
ob	-11.1812
▁türün	-11.1812
▁davul	-11.1813
▁Guy	-11.1813
▁Nikola	-11.1813
▁katkısı	-11.1813
▁Philip	-11.1814
▁etken	-11.1814
bü	-11.1815
▁Varşova	-11.1815
▁Havaalanı	-11.1815
ej	-11.1815
gy	-11.1816
▁getirme	-11.1816
▁kapat	-11.1819
▁şi	-11.1819
▁East	-11.1821
▁boğaz	-11.1821
▁alırlar	-11.1821
▁mesleği	-11.1822
▁bulduğu	-11.1822
ife	-11.1822
▁Vas	-11.1822
▁Asıl	-11.1824
▁rakam	-11.1825
▁Ef	-11.1826
▁Bilecik	-11.1829
▁şiirleri	-11.1829
Doğu	-11.1829
▁üniversitede	-11.1829
▁Filipinler	-11.1829
▁Chan	-11.183
laşması	-11.183
▁Tibet	-11.1831
▁Ner	-11.1831
▁Ball	-11.1832
▁Mit	-11.1833
▁danışmanı	-11.1834
▁ağrı	-11.1835
▁artışı	-11.1837
س	-11.1837
▁Gun	-11.1838
▁Albay	-11.184
▁yakaladı	-11.1841
▁1878	-11.1841
▁koru	-11.1844
▁Esen	-11.1845
▁sav	-11.1847
▁Bart	-11.1848
▁çeşidi	-11.1849
▁ulus	-11.1849
itz	-11.1851
▁destekleme	-11.1853
▁rütbesi	-11.1854
▁Ran	-11.1854
elle	-11.1855
klarında	-11.1855
▁hareketin	-11.1855
lag	-11.1855
▁kalarak	-11.1863
pper	-11.1863
▁Xbox	-11.1864
▁Arif	-11.1864
cel	-11.1864
▁Gua	-11.1865
▁Off	-11.1865
▁duygu	-11.1865
ET	-11.1868
▁formülü	-11.1869
▁başkanlığına	-11.1869
▁izle	-11.187
▁ağa	-11.187
▁şikayet	-11.187
▁bozukluğu	-11.1871
▁faaliyetlerini	-11.1873
lıktan	-11.1873
▁Dükü	-11.1875
▁uyku	-11.1875
▁Yurdu	-11.1877
iza	-11.1878
leşir	-11.1878
rick	-11.1883
▁öldür	-11.1883
▁Meryem	-11.1884
▁azalma	-11.1886
▁sayısız	-11.1887
▁Cap	-11.1888
▁1984'	-11.1891
▁garanti	-11.1891
leşti	-11.1893
Mer	-11.1894
▁gazı	-11.1894
▁içerdiği	-11.1895
Tek	-11.1896
▁100'	-11.1897
▁yayınlanmaya	-11.1898
▁Lau	-11.1899
▁aykırı	-11.1899
▁kompleksi	-11.1899
▁maliyeti	-11.19
▁bitirmiştir	-11.19
▁havalimanı	-11.1901
▁güne	-11.1902
▁Ortak	-11.1903
▁diller	-11.1904
▁düzeltme	-11.1905
▁sadrazam	-11.1907
-9	-11.1907
▁köşesinde	-11.1908
▁Turgut	-11.1909
part	-11.1909
▁Johann	-11.1912
▁kalkan	-11.1913
▁Anthony	-11.1913
▁87	-11.1915
▁Roger	-11.1919
▁başaran	-11.1921
klar	-11.1922
▁olgun	-11.1925
▁ayakkabı	-11.1925
ava	-11.1926
▁Part	-11.1932
hâ	-11.1933
ndedir	-11.1934
▁kasabasında	-11.1935
▁gelişmiştir	-11.1937
▁sistemde	-11.1938
▁ilçeleri	-11.1938
▁1885	-11.1939
▁konumundadır	-11.1939
▁kapasiteli	-11.1943
▁benzerlik	-11.1944
▁Yama	-11.1945
▁Key	-11.1945
▁İktisat	-11.1946
▁yaptılar	-11.1951
▁fenomen	-11.1953
▁Cambridge	-11.1953
▁(13	-11.1956
▁eğ	-11.1956
▁Grek	-11.1957
▁Heart	-11.1958
▁Res	-11.1958
▁Sı	-11.1958
▁İdman	-11.196
▁çöz	-11.1961
▁kilisenin	-11.1961
▁Sayı	-11.1966
▁yazılır	-11.197
▁Polat	-11.197
lanıyor	-11.197
▁yeme	-11.1972
▁niteliği	-11.1973
istler	-11.1973
▁ru	-11.1973
▁Nev	-11.1974
atı	-11.1974
▁Şerif	-11.1976
▁bombardıman	-11.1977
▁nesli	-11.1977
▁uğra	-11.1978
▁Mr	-11.1978
▁uçuşu	-11.1978
▁Kü	-11.1979
▁83	-11.198
lle	-11.1981
▁yayılması	-11.1982
▁anki	-11.1982
▁yüksel	-11.1983
ağın	-11.1985
▁çekme	-11.1986
▁Cenevre	-11.1988
▁itiraf	-11.1988
lamaz	-11.199
▁Sparta	-11.199
▁Yi	-11.199
▁yık	-11.1991
▁hasılat	-11.1991
cağı	-11.1993
▁ihlal	-11.1993
liğinden	-11.1994
▁satıldı	-11.1995
ł	-11.1996
▁bilimci	-11.1997
▁sahiptirler	-11.1998
ár	-11.1998
▁McC	-11.1999
▁Yayla	-11.2
ides	-11.2
▁Rihanna	-11.2002
▁avlu	-11.2002
▁yıllara	-11.2003
Orta	-11.2005
▁bulundukları	-11.2006
▁görüşler	-11.2007
▁Neu	-11.2007
▁panel	-11.201
▁hacim	-11.201
dım	-11.2011
▁takımların	-11.2012
▁oyununda	-11.2016
▁övgü	-11.2016
Küçük	-11.2016
▁bağlar	-11.2018
nız	-11.2022
İş	-11.2023
Ad	-11.2025
sızlık	-11.2026
▁virüs	-11.2027
▁Sekreteri	-11.2029
▁dis	-11.203
▁SA	-11.2031
▁2.0	-11.2031
▁teşkilatı	-11.2033
leştirmek	-11.2034
naz	-11.2036
▁vampir	-11.2037
▁Franz	-11.2038
▁hayali	-11.2039
▁üretmek	-11.204
▁Mühendislik	-11.2043
▁kırdı	-11.2044
▁Mario	-11.2049
▁Asur	-11.2049
▁%2	-11.205
▁Hristiyanlık	-11.205
▁yarışmanın	-11.205
vor	-11.2051
▁kumaş	-11.2052
▁uygulanır	-11.2052
▁Bekir	-11.2052
▁Mori	-11.2052
▁hitap	-11.2052
▁Met	-11.2054
▁aldığını	-11.2054
▁devrinde	-11.2054
▁yükselt	-11.2056
▁koordinat	-11.2057
▁sezonudur	-11.2058
▁yetenekli	-11.2059
▁Ivan	-11.206
bis	-11.206
▁gençler	-11.2062
▁oksit	-11.2063
▁bulgular	-11.2063
▁ayrılmaktadır	-11.2066
▁öte	-11.2068
▁VIII	-11.2069
▁Cannes	-11.2069
▁yönü	-11.2071
▁gösterilebilir	-11.2073
▁Kimi	-11.2073
▁büyükelçi	-11.2077
▁matematikçi	-11.2079
▁Çetin	-11.2081
▁Ai	-11.2083
▁Kun	-11.2083
▁Bayram	-11.2084
▁hastanede	-11.2085
only	-11.2085
▁Marcus	-11.2085
tıcı	-11.2085
▁etrafındaki	-11.2086
▁evlenmiştir	-11.2087
ense	-11.2087
▁basılan	-11.2088
▁duran	-11.209
▁sergiledi	-11.209
yacağını	-11.2091
▁şef	-11.2091
▁sevk	-11.2092
▁Kenan	-11.2092
▁yalan	-11.2093
▁Hattı	-11.2094
▁Old	-11.2096
▁kanıtlar	-11.2097
cro	-11.2097
▁taşınması	-11.2099
▁Moldova	-11.21
▁kav	-11.2101
▁Naz	-11.2103
▁Epi	-11.2104
▁eti	-11.2106
▁Mem	-11.2106
▁Hei	-11.2107
skaya	-11.2108
▁olaydan	-11.2109
▁şifreleme	-11.211
▁Güç	-11.2111
▁doları	-11.2111
▁topraklar	-11.2113
▁duvarı	-11.2114
Ter	-11.2116
▁şok	-11.2117
▁koşul	-11.212
time	-11.2121
Av	-11.2122
▁Böylelikle	-11.2122
larak	-11.2122
▁Slovakya	-11.2126
▁nüfuz	-11.2129
▁şirketidir	-11.2129
▁rastgele	-11.2129
▁robot	-11.2129
▁dü	-11.213
▁fazladır	-11.2134
▁1897	-11.2134
▁dizileri	-11.2134
eğin	-11.2135
▁Almanlar	-11.2135
▁şahıs	-11.2136
=228	-11.2137
▁sembol	-11.2138
▁kont	-11.2139
hum	-11.2141
sp	-11.2141
▁sevgi	-11.2141
Za	-11.2142
söz	-11.2143
▁1901	-11.2144
▁Gan	-11.2145
▁türünün	-11.2145
▁tepkime	-11.2146
▁planları	-11.2147
▁3-2	-11.2148
▁çevirisi	-11.215
Kuzey	-11.2152
▁Engin	-11.2152
▁Band	-11.2153
▁sığır	-11.2154
Mal	-11.2155
üş	-11.2157
▁olacaktı	-11.216
▁keman	-11.2161
▁civarı	-11.2164
▁dokun	-11.2166
▁puanı	-11.2167
▁yetkili	-11.2168
▁evren	-11.2168
▁görünüş	-11.2169
▁durumlar	-11.217
▁dansçı	-11.2171
▁Tümen	-11.2171
▁rüzgar	-11.2171
▁delik	-11.2174
▁İpek	-11.2176
.<	-11.2177
▁ayet	-11.2178
▁kromozom	-11.2179
▁seçilir	-11.2181
▁büyüktür	-11.2182
▁çocukluk	-11.2183
gah	-11.2184
▁1876	-11.2185
▁Saha	-11.2185
▁başvur	-11.2186
▁engelli	-11.2186
▁Milliyetçi	-11.2186
▁almasına	-11.2188
▁İnsanlar	-11.2188
▁91	-11.219
ksiyon	-11.219
▁kullanması	-11.219
▁geçmeden	-11.2195
▁84	-11.2195
▁uyma	-11.2198
▁enstrüman	-11.2199
▁1975'	-11.22
▁red	-11.22
▁700	-11.22
grad	-11.2202
▁biyoloji	-11.2202
▁Kapı	-11.2203
ial	-11.2204
Dr	-11.2206
▁Yar	-11.2208
▁Leo	-11.2208
Bur	-11.2209
▁İngilizler	-11.2209
▁Portekizli	-11.2209
▁82	-11.2209
çılık	-11.2211
▁kontrolünü	-11.2214
▁düştüğü	-11.2215
▁konularında	-11.2215
▁İdaresi	-11.2216
▁başlatılan	-11.2217
bed	-11.2217
▁mülk	-11.2218
▁Uçak	-11.222
▁Hıristiyan	-11.2221
▁aradan	-11.2223
▁yaklaş	-11.2224
▁seçkin	-11.2229
▁Little	-11.2229
▁yasama	-11.223
▁Oto	-11.2231
▁uz	-11.2233
vâ	-11.2233
▁bilgisayarlar	-11.2233
▁kayıtlı	-11.2233
deniz	-11.2234
Kan	-11.2234
▁Şar	-11.2235
▁Lincoln	-11.2236
▁hükümetin	-11.2236
▁Baltık	-11.2237
▁edilmişti	-11.2239
baz	-11.2241
▁kişilere	-11.2242
▁yapmakta	-11.2242
▁Carr	-11.2242
▁arı	-11.2243
▁kazası	-11.2245
▁Cel	-11.2246
▁Tank	-11.2246
▁bağlanır	-11.2247
▁satılan	-11.2248
▁1977'	-11.2248
▁Fred	-11.2249
ebileceğini	-11.2249
are	-11.2249
▁Take	-11.2249
▁mekanizma	-11.225
▁Vu	-11.2251
Çe	-11.2251
▁Free	-11.2252
rel	-11.2255
ciliği	-11.2255
▁yazmış	-11.2255
▁sıralamasında	-11.2256
▁statü	-11.2257
▁yaralı	-11.2258
▁karşılaşmada	-11.226
▁müziğin	-11.2263
fin	-11.2263
▁aktivist	-11.2265
▁cerrahi	-11.2265
▁tutuklu	-11.2265
▁imkânsız	-11.2265
▁hâlinde	-11.227
▁tümüyle	-11.227
▁1973'	-11.227
▁partiler	-11.2271
▁Tara	-11.2271
ılmaktadır	-11.2272
▁mekanizması	-11.2273
▁çekirdeği	-11.2277
▁gözaltın	-11.228
▁taht	-11.228
▁bireylerin	-11.2282
▁çıkarmak	-11.2284
▁engellemek	-11.2284
Baş	-11.2285
▁paylaştığı	-11.2286
▁sivri	-11.2286
▁sek	-11.2287
▁zararlı	-11.2288
▁Tahran	-11.2288
▁katılarak	-11.2289
rol	-11.229
▁bıçak	-11.2293
OR	-11.2293
▁Yunus	-11.2294
▁alet	-11.2297
▁kuruluşları	-11.2298
▁listesidir	-11.2298
▁açılışı	-11.2299
▁doçent	-11.23
▁Cy	-11.2301
▁akraba	-11.2302
▁Budizm	-11.2303
shima	-11.2303
ctor	-11.2305
.""	-11.2305
▁1981'	-11.2307
▁üretilmiş	-11.2308
▁tıpkı	-11.2309
▁oluş	-11.2309
▁Veri	-11.2313
▁Marino	-11.2314
▁edin	-11.2316
▁yüzeyi	-11.2319
▁Marcel	-11.232
▁ameliyat	-11.232
rıldı	-11.2321
▁esnek	-11.2322
▁hükümdarlığı	-11.2323
▁Sofya	-11.2324
▁çekil	-11.2324
▁tesisi	-11.2325
▁Öğrenci	-11.2326
Ah	-11.2326
ulus	-11.2327
▁Şehirde	-11.2328
▁tarafına	-11.2328
▁86	-11.2328
▁editör	-11.2329
▁gelişi	-11.233
lif	-11.233
abil	-11.233
▁yapısını	-11.2332
şim	-11.2332
▁şov	-11.2332
▁Ven	-11.2333
▁Moğolistan	-11.2337
uff	-11.2338
▁eğilimi	-11.2338
▁1968'	-11.2338
▁kop	-11.2339
▁tarımsal	-11.2346
laştırdı	-11.2352
vizyon	-11.2353
▁aşamada	-11.2353
▁fırın	-11.2354
▁sunduğu	-11.2355
▁Araplar	-11.2358
▁kadroya	-11.2358
▁Oğlu	-11.2358
▁dünyayı	-11.2361
▁herkesin	-11.2361
fir	-11.2361
kos	-11.2362
yacak	-11.2363
▁Kök	-11.2365
▁sigorta	-11.2365
▁çevrimiçi	-11.2365
Com	-11.2366
▁Studios	-11.2369
▁1919'	-11.2369
▁geometri	-11.237
fak	-11.2371
▁Rou	-11.2371
rac	-11.2372
▁NASA	-11.2373
lenmeye	-11.2373
=41	-11.2373
▁Ty	-11.2374
▁pist	-11.2374
▁mensupları	-11.2374
▁koç	-11.2376
▁kaybettiği	-11.2379
▁mutfağı	-11.2379
▁Sad	-11.238
▁Tayvan	-11.2381
▁Kre	-11.2381
▁domuz	-11.2381
▁festivali	-11.2382
fel	-11.2385
▁öncülük	-11.2386
▁sit	-11.2388
tern	-11.2388
▁Sancağı	-11.2389
▁şekilleri	-11.2389
▁ülkelere	-11.239
içi	-11.239
▁Neo	-11.2391
▁belirlenmiş	-11.2392
▁keşfedildi	-11.2395
▁kurt	-11.2395
▁Ari	-11.2396
▁dizayn	-11.2396
▁Kolej	-11.2396
▁Koz	-11.2396
▁Gil	-11.2397
▁röportajda	-11.2397
▁turist	-11.2398
▁Gene	-11.24
▁kayalık	-11.24
aw	-11.24
Ye	-11.2401
▁Atlantik	-11.2402
▁Mezopotamya	-11.2402
▁Indiana	-11.2402
▁devletlerin	-11.2403
▁pasaportu	-11.2403
▁onur	-11.2404
▁Jane	-11.2404
▁çeşme	-11.2405
cular	-11.2406
▁ardı	-11.2406
▁hamam	-11.2407
▁renkte	-11.2407
Batı	-11.241
bl	-11.2416
▁Vakıf	-11.2416
▁modelidir	-11.2416
▁ayrılıp	-11.2417
▁Rak	-11.2418
▁Yıllar	-11.2418
=275	-11.2418
_4	-11.2419
ianus	-11.2421
larken	-11.2422
PS	-11.2422
▁rapçi	-11.2422
▁Bitki	-11.2424
ST	-11.2425
▁Drama	-11.2428
zzi	-11.243
▁1967'	-11.2431
▁toprağa	-11.2431
▁Tapınağı	-11.2431
▁mizah	-11.2431
▁DC	-11.2431
▁Cumhuriyetçi	-11.2432
▁Nova	-11.2432
taşı	-11.2432
▁Harvard	-11.2438
▁düzenlenmesi	-11.2448
▁pazarlama	-11.2449
▁Katar	-11.245
okrat	-11.2455
▁olgu	-11.2456
▁1870	-11.2457
▁boyunda	-11.2457
mond	-11.2458
▁filmdir	-11.2458
▁tarafsız	-11.2458
ado	-11.2458
▁sürgüne	-11.2461
▁simgesi	-11.2462
▁imzalamıştır	-11.2462
▁yaşarlar	-11.2462
▁geçirir	-11.2463
▁Tut	-11.2463
gri	-11.2464
▁Lisans	-11.2464
anne	-11.2464
▁Fars	-11.2465
=162	-11.2465
▁1972'	-11.2465
▁Bölgede	-11.2466
▁kaynaklara	-11.2467
▁İttifak	-11.2472
▁günden	-11.2473
▁Höyük	-11.2475
▁1.5	-11.2475
▁çıkarılması	-11.2475
▁Ot	-11.2476
▁yetenekleri	-11.2476
▁pu	-11.2478
▁Yahya	-11.2478
▁zirve	-11.2478
▁Helen	-11.2478
▁nadiren	-11.2478
▁tap	-11.2479
▁Ami	-11.248
▁karakterin	-11.248
▁Wolf	-11.2481
▁Vel	-11.2481
ensis	-11.2484
▁Mik	-11.2484
▁uyarınca	-11.2484
▁anlatım	-11.2485
▁adresi	-11.2488
▁rakipleri	-11.2489
▁Had	-11.249
▁kalmayı	-11.2492
RC	-11.2492
▁Kardeşler	-11.2494
▁Matematik	-11.2494
▁üyeliğine	-11.2495
lanacak	-11.2495
▁edilmeye	-11.2496
▁ti	-11.2497
▁dağıtımı	-11.25
▁çıkarır	-11.25
▁problemleri	-11.2502
fur	-11.2502
ax	-11.2502
dık	-11.2503
▁tahıl	-11.2505
▁yoksul	-11.2505
▁göstererek	-11.2506
▁iktidara	-11.2507
rmak	-11.2507
▁his	-11.2509
▁sinemaya	-11.2509
▁basamak	-11.2509
abilme	-11.2511
▁isti	-11.2511
▁Hacettepe	-11.2512
▁Tang	-11.2512
▁boyları	-11.2513
▁tarafta	-11.2513
hit	-11.2514
▁sakatlık	-11.2514
Tak	-11.2516
▁popülasyon	-11.2517
▁çalışmalara	-11.2518
▁Savaşın	-11.2518
ан	-11.2519
▁sekreteri	-11.2519
▁modül	-11.252
▁Patrick	-11.2521
▁aralığı	-11.2521
▁kazanması	-11.2522
▁geliştirildi	-11.2523
Miss	-11.2525
▁İrlandalı	-11.2526
▁giydiği	-11.2527
▁silahı	-11.2527
polis	-11.2527
▁ermesi	-11.2527
▁telefonu	-11.253
▁yararlı	-11.2532
▁sorumluluk	-11.2532
▁ölç	-11.2534
▁kes	-11.2535
ان	-11.2536
pos	-11.2538
▁Mol	-11.2539
▁taşıdı	-11.254
▁geliyor	-11.2541
▁kişiliği	-11.2542
▁geçişi	-11.2542
▁Petrol	-11.2543
▁güçler	-11.2545
▁Rap	-11.2546
rmış	-11.2547
irken	-11.2547
▁yöneldi	-11.2548
iro	-11.2548
▁Yok	-11.2548
▁Hiro	-11.2549
▁oynanmıştır	-11.2551
hak	-11.2552
▁Akhisar	-11.2552
▁düzenlemesi	-11.2555
▁davası	-11.2556
▁Tes	-11.2557
▁isminde	-11.2558
ark	-11.2558
Osmanlı	-11.2558
▁ölçekli	-11.2559
nel	-11.256
leştirilmesi	-11.2562
▁140	-11.2563
kim	-11.2566
▁nota	-11.2566
▁birincisi	-11.2567
hri	-11.257
▁şartlar	-11.257
▁patlayıcı	-11.2571
▁Meydan	-11.2571
ico	-11.2572
▁Kadir	-11.2572
▁Tha	-11.2573
▁planlama	-11.2573
▁İr	-11.2574
▁böcek	-11.2574
▁Babasının	-11.2576
▁İhsan	-11.2576
▁ortağı	-11.2576
rap	-11.2578
▁Nintendo	-11.2578
uru	-11.2579
▁yerleşmiştir	-11.2579
rır	-11.258
lıkla	-11.258
▁bulunmayan	-11.2583
▁yönetimindeki	-11.2583
▁ormanları	-11.2584
▁mısır	-11.2586
▁günün	-11.2586
▁Kuru	-11.2587
▁Les	-11.2587
tuğ	-11.2588
▁kesinlikle	-11.2589
▁Çoban	-11.259
Th	-11.2591
yüz	-11.2592
▁1899	-11.2593
▁Biyo	-11.2594
hip	-11.2595
alizm	-11.2595
▁21.	-11.2596
▁dönüşü	-11.2596
▁komite	-11.26
▁Terim	-11.26
KP	-11.2601
▁azalması	-11.2603
▁yitirdi	-11.2605
▁milletvekilliği	-11.2608
▁Siyasi	-11.2608
▁tamamlayarak	-11.2608
DS	-11.2608
▁benimsen	-11.261
▁dikey	-11.2613
▁gelecekte	-11.2615
▁Senatosu	-11.2616
▁yükselti	-11.2619
▁boşluğu	-11.262
▁elverişli	-11.2623
▁Kaş	-11.2624
rö	-11.2624
▁Mai	-11.2625
liyordu	-11.2626
yani	-11.2627
▁bastır	-11.2628
Amerikan	-11.2629
▁1969'	-11.2629
▁Marco	-11.263
▁mili	-11.2631
▁hastalığın	-11.2633
▁döngüsü	-11.2633
▁adada	-11.2633
▁millet	-11.2634
▁Steven	-11.2634
die	-11.2635
▁zirveye	-11.2636
▁hiper	-11.2637
▁Endülüs	-11.2637
▁Gol	-11.2638
▁patlak	-11.2638
▁algoritma	-11.2639
▁sözlerini	-11.2641
▁çevrim	-11.2645
я	-11.2647
▁%3	-11.2647
▁from	-11.2647
▁adamın	-11.2648
çok	-11.2648
▁nefes	-11.2648
▁Nişanı	-11.2648
bach	-11.265
▁160	-11.265
▁360	-11.2651
▁tersi	-11.2651
▁Junior	-11.2652
▁Adını	-11.2653
=42	-11.2653
▁olabilecek	-11.2653
▁Games	-11.2654
▁kurar	-11.2658
▁koruması	-11.2658
▁düğüm	-11.2658
▁1889	-11.2659
gat	-11.2659
▁Şii	-11.2662
▁sahnede	-11.2662
▁yoluna	-11.2662
▁yükü	-11.2662
=220	-11.2664
sem	-11.2664
tım	-11.2665
▁São	-11.2665
▁planda	-11.2666
▁dolarlık	-11.2667
▁South	-11.2667
▁çiftler	-11.2668
▁hareketinin	-11.2669
▁Fon	-11.267
=274	-11.2671
▁atletizm	-11.2673
▁aralığında	-11.2673
▁takımla	-11.2674
▁tedarik	-11.2675
▁başar	-11.2676
vy	-11.2678
▁İh	-11.2678
lıca	-11.2679
▁birleşerek	-11.268
▁kapatıldı	-11.2681
ırken	-11.2682
▁vakıf	-11.2682
▁Geniş	-11.2684
▁dost	-11.2684
▁saltanatı	-11.2686
▁bileşik	-11.2687
▁konusudur	-11.2687
▁Gay	-11.2688
▁Parça	-11.2689
ilebilir	-11.2694
▁yayınlar	-11.2696
▁Ros	-11.2696
▁genişliğinde	-11.2697
▁tahsis	-11.2698
▁sil	-11.2699
ngel	-11.2699
pt	-11.2699
oh	-11.2702
▁çıkaran	-11.2702
▁önerdi	-11.2702
́	-11.2704
▁Karolina	-11.2705
▁Yel	-11.2706
▁intikam	-11.2706
▁kazandırdı	-11.2707
▁kelimesinden	-11.2707
▁papa	-11.2707
2011	-11.2708
fik	-11.2708
etto	-11.271
▁üretilir	-11.2711
▁çekmek	-11.2712
▁Lefkoşa	-11.2712
▁tanınmaktadır	-11.2713
▁atı	-11.2714
oğlan	-11.2714
▁destekledi	-11.2715
Kö	-11.2715
▁mesafede	-11.2716
▁belirleme	-11.2719
▁kardeşleri	-11.272
▁yıldızın	-11.2721
▁Kürtçe	-11.2722
sür	-11.2723
=40	-11.2723
▁taşınmıştır	-11.2723
▁performansını	-11.2725
▁rap	-11.2725
▁faktör	-11.2725
▁yayılmış	-11.2726
▁Kayıt	-11.2726
▁fırlatma	-11.2727
▁potansiyeli	-11.2728
ezi	-11.273
▁Uluslar	-11.273
▁kaydedilmiştir	-11.273
▁Benjamin	-11.2735
▁düşünülür	-11.2735
ago	-11.2736
card	-11.2737
giz	-11.2737
ings	-11.2737
▁Diego	-11.2737
hai	-11.2738
▁kurucularından	-11.274
▁tarihini	-11.2741
sif	-11.2741
pet	-11.2741
yeceği	-11.2742
=260	-11.2742
▁yelken	-11.2742
▁azından	-11.2743
ñ	-11.2744
▁sıkıntı	-11.2745
sunda	-11.2748
▁gecesi	-11.2749
tizm	-11.275
▁kulübe	-11.275
IC	-11.2751
▁Giovanni	-11.2752
800	-11.2752
▁Vikipedi	-11.2757
▁destekler	-11.2758
▁Burdur	-11.2759
amin	-11.2759
▁Spi	-11.2762
rom	-11.2764
▁momentum	-11.2765
▁müzikleri	-11.2765
unt	-11.2766
▁Başbakanlık	-11.2767
▁ge	-11.2768
▁ölümcül	-11.2773
▁medeniyet	-11.2773
▁olamadı	-11.2775
▁sayısında	-11.2778
▁çıkmak	-11.2779
▁bulunmak	-11.278
▁ailesiyle	-11.278
▁Cass	-11.2781
▁Auto	-11.2783
▁Gon	-11.2783
atlı	-11.2784
use	-11.2785
hab	-11.2785
▁His	-11.2786
▁getirilmiş	-11.2786
▁fer	-11.2787
▁kompozisyon	-11.2788
▁Sea	-11.2788
▁giyim	-11.2788
▁Çağdaş	-11.2789
▁söyleyen	-11.2789
▁Rü	-11.2789
zil	-11.279
▁Abdul	-11.279
dre	-11.2791
▁Aza	-11.2793
▁Pon	-11.2793
▁1895	-11.2793
▁hac	-11.2794
▁üçte	-11.2794
▁lehine	-11.2795
▁şeridi	-11.2795
▁mühendisi	-11.2797
▁türbe	-11.2797
▁Br	-11.2797
▁inanılır	-11.2797
▁Devrimci	-11.2798
zzo	-11.2799
HP	-11.2801
rab	-11.2802
▁Divan	-11.2802
▁Bayburt	-11.2803
▁Ted	-11.2805
▁ilkeleri	-11.2805
▁Rumen	-11.2806
▁giymiş	-11.2807
–19	-11.2809
▁doz	-11.2809
на	-11.2812
▁92	-11.2813
.500	-11.2814
resi	-11.2814
▁yoksun	-11.2815
▁motorlu	-11.2816
▁ülkelerden	-11.2817
▁geçmek	-11.2817
▁uzaktan	-11.2818
ttiği	-11.2818
▁evliliği	-11.282
▁açıklaması	-11.2821
over	-11.2821
miyor	-11.2823
▁Enver	-11.2825
▁Antarktika	-11.2826
▁dâhil	-11.2826
▁Menderes	-11.2826
▁öfke	-11.2826
=263	-11.2826
▁Üyesi	-11.2826
lmiş	-11.2828
▁maaş	-11.2828
▁kurucuları	-11.283
▁Berg	-11.2831
▁aralık	-11.2831
▁oturma	-11.2832
▁propaganda	-11.2832
▁kartı	-11.2833
Je	-11.2833
▁Emniyet	-11.2833
▁Sultanı	-11.2834
▁patent	-11.2835
▁Erol	-11.2836
ija	-11.2836
Cl	-11.2837
▁Tai	-11.2838
▁hocası	-11.2838
▁kümesidir	-11.2838
▁alış	-11.284
▁noktalar	-11.284
▁plaj	-11.284
▁rahip	-11.2842
alp	-11.2843
▁France	-11.2845
▁turnesi	-11.2849
▁konuşur	-11.285
▁harekât	-11.2854
▁Beyoğlu	-11.2856
▁Nitekim	-11.2856
▁şehit	-11.2856
pr	-11.2856
▁Saka	-11.2858
▁bulunduğunu	-11.2859
aret	-11.286
▁noktasına	-11.2861
vri	-11.2862
▁verecek	-11.2862
▁Eşi	-11.2863
▁Stein	-11.2865
SD	-11.2865
▁Ayı	-11.2865
▁1976'	-11.2866
▁Robin	-11.2869
yip	-11.287
▁Best	-11.2871
▁tavır	-11.2871
▁yemin	-11.2872
▁yıllardan	-11.2873
▁onarım	-11.2873
▁belirlendi	-11.2875
▁dinleyici	-11.2875
▁durdu	-11.2875
▁kadını	-11.2876
▁canlandırmıştır	-11.2879
▁kazanmak	-11.2879
▁Marx	-11.288
▁Göztepe	-11.288
▁kullanılmak	-11.2882
▁Eyaletin	-11.2883
yazar	-11.2883
▁sesli	-11.2883
▁Buradaki	-11.2883
▁Comp	-11.2883
▁bekleme	-11.2883
▁şarkılarını	-11.2886
▁Çu	-11.2886
sever	-11.2886
▁Len	-11.2887
▁Ras	-11.2888
▁Poe	-11.2888
▁skor	-11.2889
▁App	-11.289
▁çalma	-11.289
▁imparatorluğun	-11.2892
▁mantık	-11.2892
▁ilçeye	-11.2892
▁yunus	-11.2894
▁anlatı	-11.2895
▁antrenör	-11.2896
oyun	-11.2896
▁röportaj	-11.2898
▁hidro	-11.29
▁bayram	-11.2901
▁post	-11.2901
▁Down	-11.2903
▁bay	-11.2903
▁Pur	-11.2903
EL	-11.2905
stone	-11.2905
▁anlamlı	-11.2908
oro	-11.2909
▁Kane	-11.2909
▁topluluklar	-11.291
Fer	-11.291
ders	-11.2911
▁savunması	-11.2914
▁1939'	-11.2914
▁Etki	-11.2914
▁tarihî	-11.2915
▁çalışmasını	-11.2915
▁psiko	-11.2918
▁sağlıklı	-11.2923
▁Lawrence	-11.2923
▁Kırklareli	-11.2925
▁denetimi	-11.2925
nch	-11.2926
▁dilin	-11.2927
rup	-11.2928
▁direktörlük	-11.2928
▁sayısına	-11.2929
▁tanıttı	-11.293
▁böl	-11.2931
▁Demiryolu	-11.2933
▁yenilerek	-11.2934
rar	-11.2935
▁Şan	-11.2936
▁şişe	-11.2937
▁hükme	-11.2941
pop	-11.2943
="135	-11.2943
▁Yahudileri	-11.2944
reti	-11.2944
▁Türkistan	-11.2945
▁başkanları	-11.2946
▁gönderir	-11.2946
▁dram	-11.2947
▁Katedrali	-11.2947
▁komedyen	-11.2948
▁kova	-11.2948
▁skorla	-11.2949
▁değerlendir	-11.295
▁Jason	-11.295
▁Tuva	-11.2954
▁programını	-11.2956
▁kültürünün	-11.2958
▁Vah	-11.2958
▁çubuk	-11.2959
▁Um	-11.2959
▁ödülleri	-11.2959
▁Eleme	-11.2961
nez	-11.2961
tina	-11.2962
kadın	-11.2962
▁Ale	-11.2962
▁Vincent	-11.2964
▁giderken	-11.2964
▁Eb	-11.2967
Şa	-11.2968
▁Christopher	-11.2969
▁klinik	-11.2971
▁ikincil	-11.2972
▁Lar	-11.2972
▁yöne	-11.2972
▁Miami	-11.2973
▁2014-15	-11.2975
▁Augustus	-11.2976
▁Kaba	-11.2977
▁etiket	-11.2978
▁Etiyopya	-11.2979
▁Çarşamba	-11.2979
▁Müttefik	-11.2979
▁takımlarında	-11.298
▁seçilmesi	-11.2981
▁satır	-11.2983
▁Aleksios	-11.2986
▁Gogh	-11.2987
="263	-11.2987
▁Gösteri	-11.2988
▁Dokuz	-11.299
▁enzim	-11.2994
▁heykeltıraş	-11.2994
fal	-11.2995
head	-11.2995
Raw	-11.2995
▁üretir	-11.2998
▁yukarıda	-11.3
▁Lady	-11.3001
uyla	-11.3001
▁Sadrazam	-11.3002
▁vahşi	-11.3002
▁genişleme	-11.3003
▁Asa	-11.3003
melidir	-11.3004
▁Mini	-11.3004
▁sonucuna	-11.3008
▁dallarında	-11.3008
▁hâkim	-11.3009
▁galibiyeti	-11.3012
▁Beyliği	-11.3012
▁denizci	-11.3015
▁komün	-11.3017
▁Gui	-11.3019
▁nitelendiril	-11.302
▁Kate	-11.3021
▁servisi	-11.3023
▁memuru	-11.3023
▁Tevfik	-11.3025
▁bakımdan	-11.3027
▁ölümünün	-11.3029
get	-11.303
▁Hanlığı	-11.303
▁önerisi	-11.303
▁yürütülen	-11.3031
▁bilet	-11.3032
▁Rub	-11.3033
▁havaalanı	-11.3033
▁Yasa	-11.3035
▁çoğal	-11.3035
▁etmez	-11.3035
▁kitabını	-11.3036
▁Bö	-11.3036
▁yayımlanmış	-11.3037
▁geminin	-11.3041
▁kaplıdır	-11.3042
▁Nikolay	-11.3046
▁kendileri	-11.3047
tah	-11.3048
çer	-11.3048
ust	-11.3048
▁büyümesi	-11.3049
▁TL	-11.3049
▁ülkesine	-11.3051
▁suları	-11.3051
roman	-11.3051
▁ayrıldıktan	-11.3051
lî	-11.3052
▁Aviv	-11.3054
liz	-11.3055
▁Dave	-11.3055
▁karşılaştığı	-11.3056
▁Jandarma	-11.3056
▁İznik	-11.3057
▁tecrübe	-11.3057
▁gösterisi	-11.3063
tarak	-11.3067
▁yetişen	-11.3068
▁saptan	-11.3069
▁İlin	-11.3069
▁Sat	-11.307
tron	-11.3071
▁maddeleri	-11.3071
▁iTunes	-11.3072
▁tezi	-11.3073
▁katılımıyla	-11.3074
▁dostu	-11.3075
▁görüntüler	-11.3076
▁Bulut	-11.3078
▁eserlerin	-11.3078
▁demo	-11.3079
▁altındadır	-11.308
▁ermiştir	-11.308
ffe	-11.3082
▁şah	-11.3083
▁Toronto	-11.3087
▁taklit	-11.3088
▁tar	-11.3091
▁Hac	-11.3093
nge	-11.3094
▁delil	-11.3096
▁kuruluşlar	-11.3097
▁oluşması	-11.31
▁yetenek	-11.3102
diğinde	-11.3103
▁Konak	-11.3104
▁anime	-11.3104
▁karakteristik	-11.3104
cks	-11.3108
ruh	-11.311
▁kanalları	-11.311
▁dönmüş	-11.311
▁Philadelphia	-11.3111
▁sp	-11.3113
▁Por	-11.3114
▁adaya	-11.312
▁taşları	-11.3121
▁1898	-11.3124
▁Hasta	-11.3124
vent	-11.3125
▁etmeleri	-11.3127
▁girişimleri	-11.313
tâ	-11.3131
▁ailesinden	-11.3131
▁lehçesi	-11.3133
▁alacağı	-11.3134
▁79	-11.3134
▁Padişah	-11.3134
▁köpeği	-11.3134
▁Stockholm	-11.3134
önü	-11.3135
▁adlandırıldı	-11.3135
şt	-11.3136
rina	-11.3137
▁savunur	-11.3138
vî	-11.3139
▁Stan	-11.3139
▁öğretmenlik	-11.314
▁Santos	-11.314
uli	-11.3141
▁kentte	-11.3141
▁hükûmetin	-11.3141
▁üretiminde	-11.3141
▁İstihbarat	-11.3142
▁Fire	-11.3142
▁delege	-11.3142
▁Warner	-11.3145
sz	-11.3145
▁sözlü	-11.3147
▁yetkililer	-11.3147
▁yollarını	-11.3148
▁hastalıkları	-11.3148
ssen	-11.3148
▁yıla	-11.3149
▁iyileştirme	-11.3149
▁saz	-11.315
▁yarıştı	-11.315
▁yat	-11.3154
▁farkında	-11.3157
zur	-11.3158
▁üvey	-11.3158
▁gitmiş	-11.3159
▁bölgelere	-11.316
büyük	-11.316
zik	-11.3162
▁Medya	-11.3163
yim	-11.3163
▁görmektedir	-11.3164
▁Nec	-11.3164
▁tutuk	-11.3165
▁başlatıldı	-11.3169
▁Franklin	-11.3169
▁foton	-11.3169
▁Yardım	-11.317
▁Jordan	-11.317
ente	-11.3171
▁zorluk	-11.3173
▁detaylı	-11.3174
▁uyarlanan	-11.3175
▁Theo	-11.3178
▁ölçüm	-11.3181
▁Fair	-11.3183
▁Tag	-11.3183
▁birimler	-11.3183
▁Salon	-11.3183
▁bulunmadığı	-11.3186
▁Dre	-11.3186
kka	-11.3187
▁karşılaşır	-11.319
▁kışın	-11.3191
▁1971'	-11.3191
▁evin	-11.3194
▁Bölgenin	-11.3196
▁Kolordusu	-11.3196
▁rahatsızlık	-11.3197
▁birleşik	-11.3197
▁üyesiydi	-11.3198
▁gözleri	-11.32
osu	-11.3202
kür	-11.3202
▁gelince	-11.3203
▁bağımsızlığı	-11.3204
riye	-11.3206
▁asil	-11.3207
▁keçi	-11.3209
side	-11.321
▁davranışı	-11.321
▁heyecan	-11.3213
▁FM	-11.3214
▁gitmiştir	-11.3216
▁sakat	-11.3217
▁eklem	-11.3218
▁ekmek	-11.3219
▁kaybetmesi	-11.3219
▁sisteme	-11.3223
graf	-11.3224
="273	-11.3225
tle	-11.3226
▁ormanlar	-11.3227
put	-11.3229
▁yansıt	-11.3229
▁ri	-11.3229
▁yarışmayı	-11.323
▁Cher	-11.323
▁Gerek	-11.3231
▁oluştu	-11.3234
leştir	-11.3234
▁seti	-11.3235
oko	-11.3237
▁İleri	-11.3238
▁Jin	-11.3239
▁Bit	-11.3239
▁Kürdistan	-11.324
▁format	-11.324
▁cesaret	-11.3244
▁çıkmasına	-11.3244
▁Budapeşte	-11.3244
▁şövalye	-11.3244
▁metot	-11.3244
▁muhafazakâr	-11.3245
▁sunan	-11.3245
suzluk	-11.3245
▁Phone	-11.3246
adlandırılmıştır	-11.3247
kro	-11.3247
▁99	-11.3248
▁olanağı	-11.3249
Dan	-11.3251
Bi	-11.3252
▁karşılamak	-11.3252
▁doktorasını	-11.3252
ern	-11.3252
fiz	-11.3254
▁Üniversitesinde	-11.3255
uel	-11.3257
▁ocağı	-11.3258
▁Med	-11.3258
▁Mahalle	-11.3258
▁İlçede	-11.326
▁Niğde	-11.326
enler	-11.326
▁Gordon	-11.3262
▁pilotu	-11.3262
▁batıya	-11.3266
▁kaybeder	-11.3267
▁Antalyaspor	-11.3268
▁Terakki	-11.3268
▁Iğdır	-11.3268
▁uygulan	-11.3271
▁Okyanus	-11.3272
▁Çakır	-11.3272
=221	-11.3275
▁cesedi	-11.3276
▁istisna	-11.3276
▁pembe	-11.3276
▁yıldızların	-11.3277
▁ötesinde	-11.3278
="2018	-11.3278
zyon	-11.3278
▁Uzman	-11.3279
cılığı	-11.3281
▁manzara	-11.3281
▁yapısına	-11.3282
▁98	-11.3283
azi	-11.3284
▁Ankaragücü	-11.3286
▁Serdar	-11.3287
▁eleştirmen	-11.3289
▁oynan	-11.3291
▁ihracat	-11.3291
▁çevresel	-11.3291
▁André	-11.3292
▁1800	-11.3294
▁Kahraman	-11.3296
▁özdeş	-11.3296
▁hayatında	-11.3297
▁teoremi	-11.3297
▁kitlesi	-11.33
▁Rönesans	-11.33
lme	-11.3305
fat	-11.3305
iğe	-11.3306
lacak	-11.3307
▁tecavüz	-11.3308
▁kapağı	-11.3309
CD	-11.331
▁sosyalizm	-11.3312
▁karşılaştırma	-11.3314
skop	-11.3315
▁versiyonları	-11.3318
▁MP	-11.3319
=163	-11.3319
▁derinliği	-11.3321
▁kardeşler	-11.3322
▁etmedi	-11.3322
▁LGBT	-11.3324
▁zevk	-11.3324
▁jet	-11.3325
▁çeşitleri	-11.3326
ele	-11.3328
▁soluk	-11.3328
▁Flor	-11.3329
3)	-11.3332
▁Kırgızistan	-11.3332
=114	-11.3333
▁zar	-11.3333
▁gölü	-11.3333
üç	-11.3334
▁%9	-11.3336
▁kavramları	-11.3339
▁Naka	-11.3339
İki	-11.3339
zir	-11.3341
▁Emmy	-11.3341
▁kazanılan	-11.3341
▁bilinç	-11.3342
▁volkanik	-11.3342
▁toplulukları	-11.3343
layabilir	-11.3344
▁çaldı	-11.3346
larındandır	-11.3346
▁Çoğunlukla	-11.3348
▁kuzeyindeki	-11.3349
▁Cemil	-11.3351
rasyon	-11.3353
▁riski	-11.3356
▁Zürih	-11.3356
▁Danışma	-11.3356
▁Yaprak	-11.3357
arlar	-11.3359
▁Ph	-11.3359
▁Ör	-11.336
▁"“	-11.336
eci	-11.336
▁adlandırıl	-11.336
▁havada	-11.3361
▁geçip	-11.3362
▁görünme	-11.3362
▁takvim	-11.3362
▁Önceki	-11.3362
▁görülme	-11.3363
▁Abdülhamid	-11.3364
▁yaşamın	-11.3367
▁emek	-11.3367
▁Ermenice	-11.3368
▁çağı	-11.3368
▁parçacıklar	-11.3368
▁koku	-11.3368
▁grubundan	-11.3368
eth	-11.337
▁Medine	-11.3371
▁kullanıcılar	-11.3372
abilmiştir	-11.3373
▁sebze	-11.3373
▁geçirilmesi	-11.3374
▁üretimine	-11.3375
▁şehirlerde	-11.3377
▁Bruce	-11.3377
blo	-11.3379
▁albümden	-11.3379
▁Charlotte	-11.338
▁Mareşal	-11.338
▁Resmî	-11.338
▁kanunu	-11.338
▁Call	-11.338
▁dönüşümü	-11.338
="41	-11.3381
▁organizasyonu	-11.3381
▁familya	-11.3382
▁geçirerek	-11.3382
ory	-11.3384
king	-11.3385
▁birbirini	-11.3386
lamıştı	-11.3386
▁sade	-11.3388
▁100.000	-11.3388
SE	-11.339
▁Prensi	-11.3392
sergilenmektedir	-11.3392
▁sistemidir	-11.3393
▁yükselmesi	-11.3394
▁Store	-11.3396
▁yönlendir	-11.3396
▁melodi	-11.3396
▁sınıflandırıl	-11.3396
▁(7	-11.3398
="133	-11.3402
▁Ligue	-11.3407
▁çanak	-11.3407
▁birleşmesi	-11.341
▁güncelleme	-11.3411
▁örümcek	-11.3412
kop	-11.3413
▁kuzeye	-11.3418
▁kurumsal	-11.3418
▁yükleme	-11.3418
▁Çan	-11.3419
▁Muha	-11.342
▁Ağaç	-11.342
doğu	-11.3423
▁deneyler	-11.3423
▁Eve	-11.3424
▁belirler	-11.3424
▁turistik	-11.3424
▁yapabilir	-11.3425
por	-11.3425
▁yaban	-11.3426
▁dikdörtgen	-11.3428
▁cebir	-11.3429
▁hazine	-11.3429
kun	-11.343
▁girmek	-11.343
▁Wen	-11.3431
▁kelimesinin	-11.3433
▁Kit	-11.3433
▁atık	-11.3433
▁rütbe	-11.3433
▁arabası	-11.3434
ima	-11.3434
▁bilinme	-11.3434
=27	-11.3435
izmi	-11.3435
▁Lake	-11.3435
▁Burak	-11.3436
▁infaz	-11.3436
▁Otomobil	-11.3436
▁epi	-11.3437
▁gecikme	-11.3437
▁başlarına	-11.3441
▁amaçlayan	-11.3442
▁gerçekleştiği	-11.3443
▁oluştururlar	-11.3444
▁seramik	-11.3445
▁ürünlerin	-11.3446
İlk	-11.3447
▁kurallar	-11.3449
nga	-11.345
▁çalışmalarda	-11.3451
CA	-11.3452
▁mutfak	-11.3452
▁Ferdinand	-11.3453
▁Yargıtay	-11.3453
▁sanılmaktadır	-11.3453
▁sanatsal	-11.3453
dikten	-11.3453
▁faktörler	-11.3457
▁devletleri	-11.3457
▁leke	-11.346
▁Kıyı	-11.346
▁Yüksekokulu	-11.3461
▁restore	-11.3461
▁seferleri	-11.3462
▁ulaşması	-11.3465
▁Tiyatroları	-11.3465
▁görece	-11.3465
alt	-11.3467
iyat	-11.3469
▁yazarlığı	-11.3469
▁erkeklerin	-11.3469
▁koyma	-11.347
▁şiş	-11.347
▁yayıncı	-11.347
▁ikon	-11.3471
▁Andre	-11.3471
▁anlar	-11.3472
▁standardı	-11.3472
▁Dalı	-11.3474
lanmaya	-11.3474
▁adalar	-11.3475
▁zihinsel	-11.3478
▁eğit	-11.3479
▁hücrelerin	-11.3479
▁gezegenin	-11.3481
▁Pınar	-11.3485
▁beyan	-11.3486
▁sahasında	-11.3486
▁kaybederek	-11.3486
=166	-11.3487
▁fotoğrafçı	-11.349
▁masal	-11.3492
▁hizmetler	-11.3492
▁takdir	-11.3492
▁düşündü	-11.3493
▁çapraz	-11.3493
gard	-11.3493
▁yazın	-11.3494
▁verirler	-11.3495
▁unsur	-11.3497
▁uzunluk	-11.3497
▁projeler	-11.3499
▁Kül	-11.35
she	-11.3505
öv	-11.3505
▁karın	-11.3506
▁iade	-11.3508
▁saati	-11.3509
▁yayılım	-11.3509
▁Öztürk	-11.3511
▁mes	-11.3511
futbol	-11.3511
▁bağlamda	-11.3513
="42	-11.3514
▁sezonuna	-11.3514
lanıyordu	-11.3515
▁ilçede	-11.3515
ар	-11.3515
▁kısıt	-11.3516
▁duyan	-11.3516
▁Irmağı	-11.3517
▁2008-09	-11.3517
▁Kant	-11.3518
▁platin	-11.3518
▁güvence	-11.352
▁programına	-11.3524
▁Valentin	-11.3526
▁Kırgız	-11.3528
▁gücünün	-11.3529
▁alındığında	-11.3531
▁taktik	-11.3531
Macaristan	-11.3532
masından	-11.3532
TR	-11.3534
▁hi	-11.3535
ecekti	-11.3535
▁yapıtları	-11.3541
çam	-11.3542
▁Bolşevik	-11.3542
▁yüzeyinde	-11.3543
▁Rob	-11.3545
▁ekleme	-11.3546
▁çatısı	-11.3547
▁çağır	-11.3547
mî	-11.3549
▁aynıdır	-11.355
▁ayıran	-11.355
▁İktisadi	-11.355
▁Douglas	-11.355
▁konumda	-11.3552
Almanca	-11.3553
▁Lip	-11.3553
▁(9	-11.3554
▁Kennedy	-11.3558
▁istihdam	-11.3558
▁ödüllendirildi	-11.3559
▁yayılma	-11.356
ht	-11.356
▁halı	-11.3561
▁Haydar	-11.3561
▁Merc	-11.3562
▁sanatçıların	-11.3562
="5"	-11.3563
▁yarışmacı	-11.3563
mıyor	-11.3563
▁belediyenin	-11.3563
▁Ligde	-11.3564
▁baştan	-11.3564
▁Temp	-11.3565
▁Kerim	-11.3566
▁pompa	-11.3566
îr	-11.3567
▁şiirler	-11.3568
▁damar	-11.3568
▁tanık	-11.3569
=129	-11.3569
▁duyulan	-11.3571
▁atmış	-11.3571
fizik	-11.3572
▁alev	-11.3572
▁89	-11.3573
▁böbrek	-11.3575
▁sigara	-11.3575
▁Division	-11.3575
▁harekat	-11.3576
syonu	-11.3581
▁Dö	-11.3581
▁Nadir	-11.3582
▁Twitter	-11.3583
Dar	-11.3585
▁Sait	-11.3586
belirtilmektedir	-11.3587
2009	-11.3588
▁gerçekçi	-11.3589
▁FIBA	-11.3591
▁İttihat	-11.3591
▁Ludwig	-11.3591
▁seyre	-11.3591
▁ilki	-11.3593
▁başarıları	-11.3593
▁1943'	-11.3593
2010	-11.3596
▁akışkan	-11.3597
=57	-11.3599
ée	-11.3599
▁1942'	-11.3599
▁Madde	-11.36
gâh	-11.36
▁Aksaray	-11.36
▁cismin	-11.3601
▁özelliklere	-11.3602
ılacak	-11.3607
▁Askerî	-11.3609
▁çıkacak	-11.361
="224	-11.3611
oper	-11.3612
▁bileşeni	-11.3612
▁End	-11.3612
▁cihazları	-11.3614
ox	-11.3615
pal	-11.3615
▁çömlek	-11.3616
▁kitabe	-11.3616
has	-11.3616
▁sektörü	-11.3617
▁Hemen	-11.3619
bani	-11.362
▁Sabah	-11.3621
▁elemanı	-11.3622
old	-11.3622
▁programının	-11.3623
▁İsrailli	-11.3623
▁taşıt	-11.3624
▁Heykel	-11.3624
▁senatör	-11.3625
▁burs	-11.3625
▁topluluğun	-11.3628
Ol	-11.3628
kron	-11.3629
▁eylemi	-11.3629
Mehmet	-11.3631
▁iğne	-11.3632
GM	-11.3632
▁varsayım	-11.3634
▁un	-11.3635
▁Clark	-11.3636
▁motorları	-11.3636
▁bez	-11.3636
▁SB	-11.364
▁başlarlar	-11.3641
▁Potter	-11.3644
▁tamamını	-11.3644
▁yapıyor	-11.3645
▁senaryosu	-11.3648
▁Demokrasi	-11.3649
▁Safevi	-11.3649
▁fren	-11.365
▁1860	-11.365
▁bakınız	-11.3651
▁adasında	-11.3652
▁unsurlar	-11.3653
▁IC	-11.3655
düzenlenmektedir	-11.3656
▁girmeyi	-11.3658
▁koruyan	-11.3659
▁şeklini	-11.366
▁Rab	-11.3661
▁arzu	-11.3662
▁Jeff	-11.3664
▁yayınları	-11.3664
▁Kazu	-11.3665
▁bölünme	-11.3665
zak	-11.3666
▁oraya	-11.3666
▁göçebe	-11.3667
▁Marksist	-11.3667
▁yapısında	-11.3668
▁gerçekleş	-11.3669
▁Samsung	-11.3671
pak	-11.3672
▁ü	-11.3674
▁görüntüleme	-11.3678
Gül	-11.3679
▁indirme	-11.3679
▁bildirildi	-11.368
▁hayvanları	-11.3682
▁dizisidir	-11.3682
▁şerit	-11.3685
▁Ava	-11.3685
stat	-11.3685
▁tehlikesi	-11.3686
▁Alice	-11.3686
Altın	-11.3689
tuk	-11.369
=59	-11.3696
▁sayımı	-11.3697
küre	-11.3698
▁suya	-11.37
▁noktaya	-11.3702
▁tüketimi	-11.3703
▁düşmüş	-11.3705
▁Dü	-11.3705
▁Copa	-11.3705
▁%4	-11.3705
▁integral	-11.3706
yoruz	-11.3707
SO	-11.3709
▁Önemli	-11.3709
▁sorumludur	-11.371
▁sosyoloji	-11.371
yeni	-11.3711
▁başlamadan	-11.3711
▁Binası	-11.3713
alis	-11.3713
▁Houston	-11.3715
hic	-11.3715
▁kategorisi	-11.3717
▁edilecek	-11.3717
yorlardı	-11.3717
▁kaldılar	-11.3718
▁Kelly	-11.3718
▁Sarah	-11.3719
UN	-11.3719
▁gösterileri	-11.372
▁metrelik	-11.3721
▁manevi	-11.3724
▁Kâ	-11.3725
▁dağıldı	-11.3725
Ch	-11.3727
Sch	-11.3728
▁devletinin	-11.3729
HA	-11.373
orta	-11.3731
▁ormanlık	-11.3732
▁anlattığı	-11.3733
▁buluştu	-11.3733
▁Hard	-11.3734
▁azdır	-11.3735
ister	-11.3736
tive	-11.3738
yuki	-11.3738
▁Senfoni	-11.374
▁port	-11.374
▁belirleyen	-11.374
▁öldürülmüştür	-11.374
▁barındırır	-11.3741
▁dakikalık	-11.3741
▁filmlerin	-11.3744
▁Aşağıda	-11.3747
▁elli	-11.3749
amayacak	-11.3749
▁Çavuş	-11.375
▁maske	-11.375
▁Om	-11.3751
▁Büyükelçiliği	-11.3751
▁kaliteli	-11.3751
▁kayıplar	-11.3754
▁koyar	-11.3755
ladıkları	-11.3755
andro	-11.3756
▁tamamlanması	-11.3757
▁iplik	-11.3757
▁istenen	-11.3757
▁uzatıl	-11.3757
ovo	-11.3758
▁şeytan	-11.3758
▁fikirleri	-11.3759
▁uygu	-11.376
▁Pic	-11.3761
▁mezarlık	-11.3762
▁More	-11.3763
his	-11.3764
▁Singapur	-11.3765
▁Fuat	-11.3765
▁Afrikalı	-11.3768
▁Lil	-11.3768
▁yamaç	-11.377
▁tepkiler	-11.3771
▁Dance	-11.3772
▁ordusunda	-11.3772
▁Tayyip	-11.3773
Köy	-11.3774
▁Bayern	-11.3775
All	-11.3777
▁seviyeleri	-11.3777
▁direnç	-11.3778
▁yerleşimi	-11.3778
▁eserini	-11.3779
Sha	-11.378
▁Ferrari	-11.3781
▁Köprü	-11.3783
▁2,5	-11.3784
▁ıs	-11.3785
▁görmeye	-11.3785
▁uçaklar	-11.3787
▁yorumcu	-11.3787
▁Sub	-11.3789
Kır	-11.379
▁Fort	-11.379
▁Japonca	-11.3791
▁emin	-11.3793
▁Est	-11.3795
▁özen	-11.3795
▁News	-11.3797
bara	-11.3797
▁Fotoğraf	-11.3798
▁mahallede	-11.3798
tmek	-11.3798
▁doğuya	-11.38
▁mahallesinde	-11.38
lemektedir	-11.3802
TO	-11.3802
ştır	-11.3805
▁Bahar	-11.3806
iller	-11.3806
▁Kırşehir	-11.3807
▁türkü	-11.3808
▁açılır	-11.3808
▁inter	-11.381
▁anılmaktadır	-11.3811
▁eşittir	-11.3812
ME	-11.3812
▁karma	-11.3812
şak	-11.3814
▁Wo	-11.3815
▁sürümleri	-11.3819
▁Burhan	-11.382
▁orduya	-11.383
▁doğrulama	-11.3831
▁oluşma	-11.3831
▁ortamında	-11.3832
zh	-11.3832
▁yem	-11.3836
▁mus	-11.3837
▁otonom	-11.3837
▁görmesi	-11.3839
aq	-11.384
▁Howard	-11.3841
▁tasarlandı	-11.3843
▁Kule	-11.3843
Fransızca	-11.3843
▁kaydedildi	-11.3844
▁BAL	-11.3845
kil	-11.3848
▁köken	-11.3849
▁kulüpleri	-11.3849
▁Ün	-11.3852
▁resimler	-11.3853
dadır	-11.3853
▁azaltmak	-11.3853
aux	-11.3853
▁programda	-11.3856
▁Society	-11.3857
▁pirinç	-11.3857
▁Kavak	-11.3859
▁Lisa	-11.3859
▁Meta	-11.386
▁Bilge	-11.3862
▁bilimler	-11.3864
tius	-11.3865
▁Wayne	-11.3866
▁eylemler	-11.3867
▁tüp	-11.3868
▁bilmektedir	-11.387
zza	-11.387
▁inanma	-11.387
▁Liv	-11.3872
trop	-11.3872
▁(8	-11.3875
ike	-11.3875
▁Fabrikası	-11.3877
mizde	-11.3877
▁derecesini	-11.3879
▁elektrikli	-11.3882
▁Clo	-11.3883
▁Moore	-11.3884
▁kaçar	-11.3886
tura	-11.3887
▁etkilenen	-11.3887
Bil	-11.3888
▁bölme	-11.389
▁yazmaktadır	-11.3891
▁kayma	-11.3891
▁sürmüş	-11.3893
Fre	-11.3894
▁gelmişti	-11.3894
▁inanış	-11.3894
▁köklü	-11.3894
▁alfabe	-11.3895
▁teknolojik	-11.3896
emeyen	-11.3896
▁tabloda	-11.3897
▁rejimi	-11.3898
pas	-11.3899
stre	-11.3899
▁sergiler	-11.3901
▁Melik	-11.3901
▁ateşkes	-11.3901
▁boyutları	-11.3903
▁düşün	-11.3903
▁1946'	-11.3904
acaktı	-11.3904
▁Somali	-11.3907
▁subayı	-11.3908
▁anlaşmaya	-11.3908
▁yarışan	-11.3913
▁etkisiz	-11.3914
▁Perry	-11.3915
▁Selçuklular	-11.3915
ward	-11.3916
▁2007-08	-11.3916
▁yenilgiy	-11.3917
▁anlatmaktadır	-11.3917
▁hap	-11.3917
=56	-11.3918
▁sokul	-11.392
▁kralın	-11.392
▁Doğum	-11.392
kins	-11.3922
▁imzalandı	-11.3923
iel	-11.3924
Doctor	-11.3926
▁Yarış	-11.3928
▁bölgelerinden	-11.3929
lyn	-11.3931
▁ilaçlar	-11.3931
onomi	-11.3932
▁memnun	-11.3933
▁köylüler	-11.3933
▁küçül	-11.3933
▁vakit	-11.3933
▁astronomi	-11.3934
▁toplantısında	-11.3935
▁çıkartma	-11.3935
▁akan	-11.3935
▁Dergi	-11.3937
.19	-11.3937
mper	-11.3938
Love	-11.3938
▁1894	-11.3938
lmesi	-11.394
▁haklar	-11.3941
▁Ayaklanması	-11.3941
▁Kurul	-11.3943
▁çalışmalarıyla	-11.3945
▁Kadı	-11.3948
yası	-11.3949
▁müziğe	-11.395
▁kararıyla	-11.3951
▁Home	-11.3952
▁Hugo	-11.3952
ole	-11.3954
▁yasaları	-11.3954
Ger	-11.3955
▁kendinden	-11.3956
▁1948'	-11.3957
▁kaçak	-11.3957
▁anlaşıl	-11.3958
▁zira	-11.3958
▁nedenlerle	-11.396
▁Şey	-11.396
grafi	-11.3961
▁yönünden	-11.3961
▁tarzda	-11.3961
▁Thi	-11.3962
▁personeli	-11.3964
▁faaliyete	-11.3964
TE	-11.3964
▁kullanırlar	-11.3964
▁tüket	-11.3965
vas	-11.3965
stal	-11.3966
nica	-11.3966
▁oluşturul	-11.3968
▁yenen	-11.3968
▁dostluk	-11.3969
▁Zeynep	-11.3969
▁prensibi	-11.3971
▁yürütül	-11.3971
siniz	-11.3971
▁oturan	-11.3971
▁Bartın	-11.3972
▁oyna	-11.3972
rell	-11.3973
▁Oyunda	-11.3974
chu	-11.3975
▁bağları	-11.3975
▁kabartma	-11.3975
▁batarya	-11.3976
▁izotop	-11.3976
▁Demirci	-11.3977
700	-11.3977
▁Haz	-11.3978
▁Fuji	-11.3979
▁taraflı	-11.398
mizin	-11.3983
▁Mos	-11.3983
▁Beh	-11.3984
▁Reich	-11.3985
▁açlık	-11.3985
memiş	-11.3986
▁Gelen	-11.3986
▁kuyu	-11.3986
▁İskenderiye	-11.3986
▁asır	-11.3987
kır	-11.3989
uro	-11.399
▁İyon	-11.3992
▁hamur	-11.3992
▁Yap	-11.3994
▁konumuna	-11.3995
vu	-11.3996
▁bireyin	-11.3997
este	-11.3997
▁durumları	-11.3997
▁İlkokulu	-11.3998
▁danışman	-11.4002
▁CEO	-11.4002
▁Özgürlük	-11.4003
▁bahçesi	-11.4004
▁ilişkilerini	-11.4005
thi	-11.4005
=155	-11.4006
▁nehrin	-11.4008
▁Bağımsızlık	-11.4009
çek	-11.4011
▁Adams	-11.4011
▁lazer	-11.4012
aro	-11.4012
▁çevrilidir	-11.4013
sir	-11.4013
▁kese	-11.4014
▁Mid	-11.4014
▁gösteriler	-11.4014
▁konulu	-11.4016
▁bizim	-11.4016
▁America	-11.4016
ibi	-11.4018
▁Brüksel	-11.4018
▁yürütmüştür	-11.4018
▁Nak	-11.4021
▁oğlunun	-11.4021
gus	-11.4022
sburg	-11.4022
=46	-11.4022
=45	-11.4023
▁st	-11.4023
▁katkıları	-11.4025
▁Road	-11.4025
▁bulmuş	-11.4029
▁1962'	-11.4029
▁hikâyeleri	-11.4034
lüğün	-11.4035
gul	-11.4037
▁tartışmalı	-11.4037
▁Andrea	-11.4043
▁tazminat	-11.4044
=43	-11.4045
▁sözleşmesini	-11.4046
▁Net	-11.4047
▁Wu	-11.4048
ost	-11.4049
SL	-11.405
Mon	-11.4052
ces	-11.4052
▁yönleri	-11.4053
▁geçerlidir	-11.4053
sho	-11.4054
▁Lim	-11.4056
rama	-11.4056
▁1882	-11.4056
▁Gökhan	-11.4057
atlar	-11.406
▁Yalçın	-11.4061
▁Dakota	-11.4061
▁tutulan	-11.4061
▁Yakup	-11.4062
tok	-11.4064
▁Niko	-11.4064
▁bize	-11.4067
aff	-11.4068
▁desteklenen	-11.4068
▁dalda	-11.4069
Ala	-11.4069
▁Tapınak	-11.407
pes	-11.4071
Kur	-11.4075
zaman	-11.4075
▁Aba	-11.4078
▁tarihlerde	-11.408
▁Hamdi	-11.4081
▁çekişme	-11.4083
▁dedesi	-11.4084
▁günah	-11.4084
▁1877	-11.4085
▁zordur	-11.4086
▁bakteriler	-11.4086
eder	-11.4087
▁yaşlarında	-11.4087
▁Manuel	-11.4088
▁vurma	-11.4092
ndadır	-11.4092
▁türe	-11.4093
▁haberler	-11.4094
▁kul	-11.4096
▁Test	-11.4096
▁Tip	-11.4097
▁buçuk	-11.4097
▁Anıt	-11.4098
▁addır	-11.41
▁kalmaya	-11.4101
▁1963'	-11.4101
mag	-11.4102
▁Tepesi	-11.4102
▁yapıtı	-11.4103
▁tescil	-11.4104
İl	-11.4105
▁kumanda	-11.4105
▁koymuştur	-11.4105
▁1893	-11.4108
▁civarındadır	-11.4109
▁Kırk	-11.411
▁Amy	-11.411
▁yaşandı	-11.4111
▁artmıştır	-11.4112
▁Kid	-11.4112
▁destekli	-11.4112
▁Vak	-11.4112
erkek	-11.4113
▁Fle	-11.4115
▁keşfetti	-11.4115
▁hareketler	-11.4115
▁bölüme	-11.4117
hol	-11.4117
▁köyünün	-11.4117
▁Fernando	-11.4117
▁Özgün	-11.412
▁kendisiyle	-11.4121
▁belgeleri	-11.4124
▁Liste	-11.4124
▁bıraktığı	-11.4125
▁güçlerini	-11.4129
▁kına	-11.4129
▁gerçekte	-11.413
▁kalkınma	-11.4132
▁Yöre	-11.4133
nur	-11.4134
RS	-11.4136
morf	-11.4136
▁tankı	-11.4138
▁İsviçreli	-11.4138
▁hikâyesini	-11.4139
EK	-11.4139
▁tarama	-11.4139
Kim	-11.414
▁Tav	-11.414
▁genişletme	-11.414
stel	-11.4142
▁emriyle	-11.4142
▁eserlerinde	-11.4142
▁müdür	-11.4143
▁geçirmesi	-11.4144
▁suda	-11.4144
▁kaptanı	-11.4145
▁kazandılar	-11.4145
▁arması	-11.4146
▁deyim	-11.4146
ememiştir	-11.4147
alım	-11.4147
pik	-11.4147
ulması	-11.4148
GA	-11.4149
▁bileşen	-11.4152
▁Alay	-11.4152
▁organizma	-11.4152
▁Bran	-11.4156
▁Lizbon	-11.4156
▁esnada	-11.4156
ø	-11.4161
▁1947'	-11.4161
▁Sıra	-11.4163
▁deneyimi	-11.4163
▁müddet	-11.4165
▁Çınar	-11.4165
glia	-11.4165
▁kullandıkları	-11.4165
▁öğretmenliği	-11.4167
▁yatağı	-11.4167
▁yanma	-11.4168
▁Süre	-11.4168
▁birleşti	-11.417
▁125	-11.4172
▁daima	-11.4174
▁girip	-11.4176
▁Köse	-11.4177
▁harfleri	-11.4178
=55	-11.4178
▁makineleri	-11.4179
▁bağlanma	-11.4179
lendirilmesi	-11.418
Paul	-11.418
▁Ayrı	-11.4181
▁London	-11.4182
▁vermeyi	-11.4183
▁faaliyetlerine	-11.4185
lıkta	-11.4186
▁birtakım	-11.419
▁Karar	-11.419
Mor	-11.4191
beş	-11.4191
issa	-11.4191
ekli	-11.4192
▁Bayrak	-11.4193
▁iskelet	-11.4193
▁Melek	-11.4194
▁göstermesi	-11.4195
▁üçü	-11.4195
▁eşitliği	-11.4196
▁2019),	-11.42
çik	-11.42
▁edilip	-11.4201
▁uğramış	-11.4201
▁yaka	-11.4202
şır	-11.4203
▁aza	-11.4203
▁maliyet	-11.4203
▁yerlere	-11.4203
▁yıkım	-11.4206
▁yapılarak	-11.4206
▁É	-11.4206
▁bölün	-11.4206
▁Şem	-11.4207
▁canavar	-11.4208
▁duyarlı	-11.4208
Kor	-11.4208
▁Sankt	-11.4209
lular	-11.4212
cca	-11.4213
▁105	-11.4215
▁Peri	-11.4217
▁Kuveyt	-11.4217
▁Russell	-11.4217
▁gu	-11.4218
▁modu	-11.4218
▁Dans	-11.4219
▁töreninde	-11.4221
▁marşı	-11.4222
▁sesleri	-11.4222
CH	-11.4222
▁dairesel	-11.4223
▁bildirir	-11.4224
▁Missouri	-11.4226
▁yy	-11.4226
▁Viktor	-11.4227
▁kaldıktan	-11.4228
▁yaşamaktaydı	-11.4228
▁yüksekliğinde	-11.4228
▁dahilinde	-11.423
▁bitirme	-11.4232
cr	-11.4233
▁Ümit	-11.4235
ktif	-11.4235
▁efsanevi	-11.4237
mizi	-11.4238
ûn	-11.4238
▁istiyordu	-11.4238
▁Halkın	-11.4238
tov	-11.4242
▁Law	-11.4242
▁Kırıkkale	-11.4243
▁İsyanı	-11.4244
▁Nehir	-11.4247
ülasyon	-11.4248
Kızıl	-11.425
▁isabet	-11.4252
▁nitelen	-11.4255
▁nesneler	-11.4255
▁kalenin	-11.4258
▁kullanıcının	-11.4258
laştırılması	-11.4259
▁gelişti	-11.4259
▁yönetimini	-11.4259
▁1965'	-11.4261
▁babasını	-11.4262
▁Gustav	-11.4263
▁Belçikalı	-11.4264
▁Nan	-11.4266
▁1938'	-11.4267
▁Körfez	-11.4267
▁Budist	-11.4271
▁fethi	-11.4272
▁haz	-11.4273
▁İlhan	-11.4273
▁planlı	-11.4274
▁eğilim	-11.4274
▁istemiştir	-11.4274
ball	-11.4275
▁kurmaya	-11.4275
▁Hamza	-11.4277
▁yaşamına	-11.4277
▁Wrestling	-11.4278
▁papaz	-11.428
▁Gla	-11.4281
▁korur	-11.4281
lanmıştı	-11.4282
▁Lige	-11.4283
▁Mikro	-11.4283
▁yağı	-11.4285
▁Lind	-11.4286
▁Giray	-11.4289
=49	-11.429
PC	-11.4292
▁tanrıça	-11.4292
▁birbiriyle	-11.4292
▁Bolşevikler	-11.4292
düz	-11.4292
▁saatte	-11.4293
▁dansı	-11.4294
▁yükselir	-11.4294
uldu	-11.4295
seri	-11.4297
▁silindir	-11.4298
▁oku	-11.4298
▁istilası	-11.4299
▁lüks	-11.43
▁Nah	-11.43
ûr	-11.4301
madı	-11.4301
▁tekstil	-11.4305
▁radar	-11.4305
▁mesajı	-11.4305
▁İb	-11.4306
▁krallığı	-11.4307
▁gücüne	-11.4309
ülmüş	-11.4309
rist	-11.431
▁seçimler	-11.4311
▁beraberinde	-11.4311
▁adından	-11.4311
▁Get	-11.4312
▁merak	-11.4313
▁edecektir	-11.4316
▁bölgesini	-11.4316
▁Sasani	-11.4319
▁değişmez	-11.4319
▁Eserleri	-11.4319
atik	-11.4322
▁ışınları	-11.4323
▁hamle	-11.4324
▁Fun	-11.4324
uklu	-11.4325
▁gerektiren	-11.4328
▁Stu	-11.4331
▁lejyon	-11.4331
▁gişe	-11.4332
▁çözme	-11.4332
▁nano	-11.4333
lilik	-11.4334
▁satarak	-11.4335
▁Rai	-11.4336
▁kaydedilen	-11.4338
▁ömrü	-11.4339
▁direnci	-11.434
▁Margaret	-11.434
▁karaciğer	-11.434
▁tuğla	-11.434
▁Anıtı	-11.4341
▁savaşlar	-11.4342
CP	-11.4344
▁yönetiminin	-11.4344
▁İlerleye	-11.4345
cum	-11.4347
▁ex	-11.4348
▁kaydetmiştir	-11.435
▁yanındaki	-11.4351
kam	-11.4351
▁fazlası	-11.4352
▁örgütün	-11.4352
▁bölümlerinde	-11.4353
▁edildiğini	-11.4353
Gra	-11.4353
▁çevirdi	-11.4353
▁tanımladı	-11.4354
▁tu	-11.4355
▁1961'	-11.4355
▁Row	-11.4355
▁refah	-11.4358
▁esinlenerek	-11.4358
bun	-11.4358
▁monte	-11.4359
▁taarruzu	-11.4361
▁takımıdır	-11.4363
dov	-11.4363
Af	-11.4364
=130	-11.4364
▁Gran	-11.4366
▁bataklık	-11.4366
▁derginin	-11.4367
▁tanımlayan	-11.4369
▁Diş	-11.437
Ayrıca	-11.4371
▁balıkçı	-11.4375
onik	-11.4375
▁çıkıntı	-11.4375
▁kil	-11.4376
▁şarj	-11.4376
▁Gökada	-11.4376
MI	-11.4377
▁sub	-11.4377
▁vurul	-11.438
▁karikatür	-11.438
▁dosyaları	-11.4381
▁Taşı	-11.4382
▁ömür	-11.4383
▁kütüphanesi	-11.4384
▁Ortaçağ	-11.4385
▁hipo	-11.4386
▁kapatıl	-11.4386
▁Liber	-11.4388
ebilme	-11.439
▁yazıp	-11.439
günümüzde	-11.4391
▁Death	-11.4391
▁kalmak	-11.4391
▁sözler	-11.4391
toz	-11.4391
▁ger	-11.4392
▁yıkıldı	-11.4392
▁Ramazan	-11.4393
▁atama	-11.4394
Alman	-11.4394
▁alabilir	-11.4396
▁Cermen	-11.4396
▁bilimleri	-11.4397
▁atılmıştır	-11.4398
▁Paulo	-11.4398
Cen	-11.4398
makla	-11.44
▁1957'	-11.44
▁denizden	-11.44
▁hayranları	-11.4401
▁bakanlığı	-11.4401
▁gözle	-11.4402
▁değiştirerek	-11.4403
▁bırakıp	-11.4403
stik	-11.4405
▁bağlantıları	-11.4405
▁vilayet	-11.4405
▁doktoru	-11.4406
▁Sefer	-11.4409
▁Şehit	-11.441
▁gömüldü	-11.4411
▁reddedil	-11.4411
▁incelenmesi	-11.4411
▁futbolcusu	-11.4412
▁basıldı	-11.4413
hos	-11.4414
▁metinler	-11.4414
▁çam	-11.4415
▁Bros	-11.4417
▁başlanmış	-11.442
▁Maçı	-11.442
wen	-11.4421
▁antlaşması	-11.4423
▁düşünü	-11.4423
tekin	-11.4423
▁seviyesinden	-11.4425
▁IX	-11.4426
ase	-11.4426
▁okulunda	-11.4427
2012	-11.4427
▁alıntı	-11.4428
kendi	-11.4429
▁Kenya	-11.4429
▁türemiştir	-11.4432
▁nemli	-11.4432
fes	-11.4434
▁kentinin	-11.4435
▁ruhu	-11.4436
▁dönüşmüştür	-11.4439
▁ölünce	-11.444
▁inceleyen	-11.444
▁1881	-11.4441
▁kısmına	-11.4443
▁arda	-11.4443
▁Kamp	-11.4446
▁Facebook	-11.4447
▁yerçekimi	-11.4447
ult	-11.4447
rub	-11.4449
▁kelimeler	-11.4451
amamıştır	-11.4452
Ver	-11.4452
▁oylaması	-11.4452
▁geliştirdiği	-11.4453
Ci	-11.4455
▁atıfta	-11.4455
▁Tennessee	-11.4455
▁emisyon	-11.4456
▁görüntüsü	-11.4457
▁Nam	-11.4459
▁üretici	-11.4459
iva	-11.4459
▁sayfası	-11.446
▁Dai	-11.446
▁Yunanlar	-11.4462
▁görünümü	-11.4463
▁katılacak	-11.4463
mize	-11.4464
▁Kla	-11.4464
▁Harris	-11.4464
▁romanları	-11.4465
▁Silva	-11.4466
yince	-11.4468
maç	-11.4469
▁savaştı	-11.4469
▁Yay	-11.4472
▁gram	-11.4472
▁ima	-11.4473
bs	-11.4473
▁satranç	-11.4473
▁Lou	-11.4475
▁filmindeki	-11.4475
▁Klip	-11.4476
▁Eskiden	-11.4482
=44	-11.4482
▁zeytin	-11.4482
▁sohbet	-11.4482
▁sınırlarını	-11.4483
▁1964'	-11.4484
▁ulaşımı	-11.4484
▁doğma	-11.4485
▁söyleme	-11.4485
▁hareketini	-11.4485
▁başladığında	-11.4486
▁Müslümanların	-11.4488
▁şarkıya	-11.4489
▁dol	-11.4489
▁kentsel	-11.4489
▁Deri	-11.4492
▁çapı	-11.4492
▁kararını	-11.4494
▁Konstantinos	-11.4494
=113	-11.4495
▁Aristo	-11.4496
▁dillerinde	-11.4497
▁savaşları	-11.4497
▁peynir	-11.4498
▁futbolculuk	-11.4498
▁amaçları	-11.4499
▁Rol	-11.4499
▁tabanca	-11.4499
▁bulamadı	-11.45
.000.000	-11.45
▁Sünni	-11.4501
▁ofis	-11.4504
▁kurulmasına	-11.4504
▁albüme	-11.4505
▁raporu	-11.4506
$	-11.4506
Ankara	-11.4507
Fu	-11.4508
▁başbakanlık	-11.4509
▁Bask	-11.4509
▁sansür	-11.451
▁üretme	-11.4513
▁teker	-11.4515
Kal	-11.4516
▁eserlerinin	-11.4516
="57	-11.4517
▁ulaşmış	-11.4518
▁Form	-11.4518
▁çifti	-11.4518
yel	-11.4519
▁yönlendirme	-11.4519
▁katılımı	-11.452
▁Gru	-11.4522
▁çabası	-11.4523
▁kitabının	-11.4526
usu	-11.4527
▁defter	-11.4527
▁yerlerinde	-11.4527
▁plazma	-11.4528
▁temelli	-11.4528
ism	-11.453
▁Book	-11.4531
▁yerinden	-11.4533
▁söylenen	-11.4534
▁Kitabın	-11.4534
▁Konser	-11.4535
▁bağırsak	-11.4537
▁malzemeleri	-11.4537
▁verdiğini	-11.4538
ás	-11.4538
▁düşünceleri	-11.4538
▁dağları	-11.454
▁Baron	-11.454
▁Rh	-11.454
▁Tuğ	-11.454
▁kutlama	-11.454
▁1922'	-11.4542
▁kullanımını	-11.4543
▁Spike	-11.4544
CO	-11.4549
ech	-11.455
▁takas	-11.4551
▁problemler	-11.4551
▁istasyonları	-11.4552
▁aygıt	-11.4552
kem	-11.4552
▁beynin	-11.4554
▁müslüman	-11.4554
▁Boris	-11.4558
▁ağaçlar	-11.4558
▁Batılı	-11.4558
AB	-11.4561
omo	-11.4566
▁şekillerde	-11.4567
able	-11.4568
▁üyeler	-11.457
ule	-11.4571
▁buluşma	-11.4572
▁gönderi	-11.4572
▁Danimarkalı	-11.4573
▁Nord	-11.4575
▁Aka	-11.4576
▁bilin	-11.4577
▁oyunlarında	-11.4577
▁Luke	-11.4579
▁170	-11.4581
▁Şeker	-11.4581
▁Pedro	-11.4581
▁hanedir	-11.4582
▁istek	-11.4582
▁söylenmektedir	-11.4584
▁Harbi	-11.4586
▁işlerini	-11.4587
▁iddiaları	-11.4587
▁Ann	-11.4587
▁yolun	-11.4588
▁saygın	-11.4588
▁Ozan	-11.4588
▁1966'	-11.4589
▁Kala	-11.4589
▁Channel	-11.4591
="59	-11.4591
▁Jimmy	-11.4591
▁trafiği	-11.4592
▁yazıldığı	-11.4593
▁transferi	-11.4593
lop	-11.4593
ünden	-11.4594
▁Radyosu	-11.4595
▁م	-11.4595
pil	-11.4595
▁etmesiyle	-11.4597
fiye	-11.4597
▁Sap	-11.4598
▁bestesi	-11.4598
▁ağaçları	-11.4598
▁türlerinin	-11.4598
▁yerleştirilmiş	-11.4599
▁iPhone	-11.46
▁ulaştığı	-11.4601
▁büyüklükte	-11.4602
▁kayak	-11.4602
▁Petro	-11.4602
▁seçenek	-11.4602
▁British	-11.4603
▁Sound	-11.4603
▁yazması	-11.4604
▁güneyindeki	-11.4605
yas	-11.4606
1)	-11.4606
▁süreyle	-11.4606
uld	-11.4607
▁1892	-11.4607
▁şe	-11.4607
▁atanan	-11.4607
▁sürpriz	-11.4609
▁memleketi	-11.461
▁sağlamış	-11.4611
▁1928'	-11.4611
thy	-11.4612
leştirir	-11.4613
▁Finalde	-11.4615
▁olasılıkla	-11.4615
zam	-11.4615
▁anlattı	-11.4615
lock	-11.4617
▁Fur	-11.4619
▁Eren	-11.462
▁paylaşıl	-11.462
▁Adil	-11.462
▁havayolu	-11.4621
hun	-11.4621
▁çevrilmiştir	-11.4622
▁yılını	-11.4623
▁fakültesi	-11.4624
▁PS	-11.4624
▁Lyon	-11.4625
▁uzayı	-11.4625
▁kurumların	-11.4625
ğan	-11.4625
▁Camp	-11.4626
▁hipotez	-11.4626
lım	-11.4627
▁nötron	-11.4627
masının	-11.4628
▁gerekçe	-11.4629
viz	-11.4629
▁tutarlı	-11.463
Uluslararası	-11.4634
likte	-11.4637
4.000	-11.4637
▁içerisine	-11.4638
▁üstünlük	-11.4639
▁nem	-11.4639
Tra	-11.4639
dirler	-11.464
▁Konsey	-11.464
abiliyor	-11.4641
▁tavan	-11.4645
▁Helsinki	-11.4645
▁IŞİD	-11.4645
▁Shakespeare	-11.4645
-25	-11.4647
▁Başkanlık	-11.4647
▁bale	-11.4648
may	-11.4649
▁Harbiye	-11.4649
▁savcı	-11.465
▁kazandıkları	-11.465
▁umut	-11.4652
▁sodyum	-11.4654
▁sunmuştur	-11.4655
▁Od	-11.4655
▁meşe	-11.4657
▁kuyruklu	-11.4657
▁Carter	-11.4658
▁parametre	-11.4662
▁1958'	-11.4663
▁mezhep	-11.4663
▁Kanalı	-11.4663
▁soykırım	-11.4663
▁Jam	-11.4663
▁hücresi	-11.4664
▁Office	-11.4664
▁gövdesi	-11.4664
▁madalyası	-11.4664
▁amaçlar	-11.4664
▁tarayıcı	-11.4665
ela	-11.4666
▁kılın	-11.4666
▁bana	-11.4667
ilme	-11.4668
▁belirlen	-11.4669
gh	-11.4671
▁Konu	-11.4673
▁atölye	-11.4673
▁zıt	-11.4673
▁Ez	-11.4675
cul	-11.4677
▁Bala	-11.4677
▁com	-11.4678
▁akımın	-11.4678
▁Limanı	-11.4678
▁Pal	-11.4679
▁Çukur	-11.468
▁Oliver	-11.4682
▁Leningrad	-11.4682
▁Oku	-11.4682
▁toplumu	-11.4683
AŞ	-11.4683
asker	-11.4684
▁Anlaşması	-11.4685
▁ipek	-11.4685
▁Prince	-11.4685
▁sapma	-11.4686
▁Nas	-11.4687
▁ölçümü	-11.4687
▁komisyon	-11.4687
▁santral	-11.469
=119	-11.469
▁işini	-11.469
▁başlama	-11.4692
▁Yıllık	-11.4693
▁belirtmektedir	-11.4693
▁büyüklüğünde	-11.4694
▁böcekler	-11.4694
▁koyduğu	-11.4696
▁onuncu	-11.4697
▁döndüğünde	-11.4697
▁izole	-11.4698
▁1921'	-11.4698
▁cihazı	-11.4699
▁statüsüne	-11.4699
▁soğutma	-11.4699
▁Tebriz	-11.47
▁1959'	-11.47
▁gösterge	-11.47
etler	-11.4701
▁Seb	-11.4701
anlı	-11.4702
▁gelirler	-11.4704
▁geçtikten	-11.4706
pati	-11.4707
▁etkileme	-11.4708
ED	-11.471
▁Ülkede	-11.4711
▁matris	-11.4711
▁Carol	-11.4711
▁Utah	-11.4712
▁isimlerle	-11.4712
▁Bü	-11.4713
▁aklın	-11.4713
agon	-11.4713
metrik	-11.4714
loji	-11.4714
▁belirti	-11.4714
▁kalıntılar	-11.4715
ilk	-11.4715
hanesi	-11.4717
▁fırlatıl	-11.4718
▁büyüğü	-11.4719
▁hastaneye	-11.4719
▁Artistik	-11.472
▁Arts	-11.472
▁Alanya	-11.472
▁ülkesini	-11.4721
▁öğrenil	-11.4722
▁sporcular	-11.4722
▁Bella	-11.4726
▁ideoloji	-11.4726
▁ocak	-11.4728
▁düzenlemeler	-11.4728
▁metni	-11.4729
▁saatlik	-11.473
▁dönmek	-11.4731
▁bakanlık	-11.4732
▁Fal	-11.4733
▁proton	-11.4733
=273	-11.4733
▁almaktaydı	-11.4734
▁toplamak	-11.4737
▁tutulur	-11.4737
▁Kapısı	-11.4737
▁çevreleyen	-11.4739
▁üniversitesi	-11.474
▁dolgu	-11.4741
▁tamamlanmıştır	-11.4741
▁seçimde	-11.4743
Qu	-11.4744
▁Styles	-11.4746
▁AG	-11.4746
▁aileler	-11.4748
Çin	-11.4749
▁geometrik	-11.4749
▁Lucas	-11.475
▁tümör	-11.475
▁Bonn	-11.4751
▁Cab	-11.4752
▁tanıtımı	-11.4754
▁Zamanla	-11.4755
▁antrenman	-11.4755
▁Yarışmada	-11.4757
▁özü	-11.4758
ebildi	-11.4761
▁04	-11.4762
▁açıktır	-11.4763
▁yerleşke	-11.4765
▁Kontrol	-11.4765
▁Matthew	-11.4767
lamışlardır	-11.4769
▁Blo	-11.477
▁motorlar	-11.4771
▁önerme	-11.4772
▁Liberal	-11.4772
▁araştırması	-11.4773
▁komşudur	-11.4773
hall	-11.4773
▁kapsamaktadır	-11.4774
ος	-11.4774
▁Burg	-11.4776
▁dramatik	-11.4776
▁tüketici	-11.478
▁Daire	-11.478
▁1933'	-11.478
▁zorluklar	-11.4781
▁bağır	-11.4781
ebildiği	-11.4781
▁manevra	-11.4783
▁kaygı	-11.4783
▁şiddeti	-11.4785
▁dilinin	-11.4788
bad	-11.4788
▁romanından	-11.4788
="56	-11.479
▁Süt	-11.479
▁çekmektedir	-11.4795
▁aşiret	-11.4796
▁Pink	-11.4796
▁kulübüdür	-11.4798
Sev	-11.48
▁Zü	-11.48
▁eserlerinden	-11.4801
▁Karabük	-11.4801
▁sinagog	-11.4801
▁reseptör	-11.4801
üst	-11.4802
▁almışlardır	-11.4803
▁edeceğini	-11.4803
▁gömülü	-11.4804
▁yığın	-11.4804
▁yaşından	-11.4804
▁Tasarım	-11.4804
det	-11.4807
▁deplasmanda	-11.481
GC	-11.481
zawa	-11.481
▁keşiş	-11.481
▁California	-11.4811
▁Johnny	-11.4811
▁götürür	-11.4812
▁mahalleleri	-11.4813
▁Hey	-11.4813
▁Özbek	-11.4814
▁anında	-11.4814
▁korun	-11.4814
▁Çalışmaları	-11.4814
▁kopyası	-11.4815
gio	-11.4816
▁Bos	-11.4817
▁molekül	-11.482
▁Başta	-11.482
▁Şef	-11.482
▁oluyor	-11.4821
-30	-11.4821
▁Özdemir	-11.4821
RI	-11.4821
▁tamamlan	-11.4821
run	-11.4822
▁Devri	-11.4823
▁dinleme	-11.4825
▁ustası	-11.4825
▁kalkış	-11.4826
[...]
